{"version":"1.0","truncation":null,"padding":null,"added_tokens":[{"id":0,"special":true,"content":"[UNK]","single_word":false,"lstrip":false,"rstrip":false,"normalized":false},{"id":1,"special":true,"content":"[PAD]","single_word":false,"lstrip":false,"rstrip":false,"normalized":false},{"id":2,"special":true,"content":"[CLS]","single_word":false,"lstrip":false,"rstrip":false,"normalized":false},{"id":3,"special":true,"content":"[SEP]","single_word":false,"lstrip":false,"rstrip":false,"normalized":false},{"id":4,"special":true,"content":"[MASK]","single_word":false,"lstrip":false,"rstrip":false,"normalized":false}],"normalizer":{"type":"Sequence","normalizers":[{"type":"NFD"},{"type":"Lowercase"},{"type":"StripAccents"}]},"pre_tokenizer":{"type":"BertPreTokenizer"},"post_processor":{"type":"TemplateProcessing","single":[{"SpecialToken":{"id":"[CLS]","type_id":0}},{"Sequence":{"id":"A","type_id":0}},{"SpecialToken":{"id":"[SEP]","type_id":0}}],"pair":[{"SpecialToken":{"id":"[CLS]","type_id":0}},{"Sequence":{"id":"A","type_id":0}},{"SpecialToken":{"id":"[SEP]","type_id":0}},{"Sequence":{"id":"B","type_id":1}},{"SpecialToken":{"id":"[SEP]","type_id":1}}],"special_tokens":{"[CLS]":{"id":"[CLS]","ids":[2],"tokens":["[CLS]"]},"[SEP]":{"id":"[SEP]","ids":[3],"tokens":["[SEP]"]}}},"decoder":{"type":"WordPiece","prefix":"##","cleanup":true},"model":{"type":"WordPiece","unk_token":"[UNK]","continuing_subword_prefix":"##","max_input_chars_per_word":100,"vocab":{"[UNK]":0,"[PAD]":1,"[CLS]":2,"[SEP]":3,"[MASK]":4,"!":5,"#":6,"$":7,"%":8,"&":9,"'":10,"(":11,")":12,"*":13,"+":14,",":15,"-":16,".":17,"/":18,"0":19,"1":20,"2":21,"3":22,"4":23,"5":24,"6":25,"7":26,"8":27,"9":28,":":29,";":30,"<":31,"=":32,">":33,"?":34,"@":35,"[":36,"\\":37,"]":38,"^":39,"_":40,"`":41,"a":42,"b":43,"c":44,"d":45,"e":46,"f":47,"g":48,"h":49,"i":50,"j":51,"k":52,"l":53,"m":54,"n":55,"o":56,"p":57,"q":58,"r":59,"s":60,"t":61,"u":62,"v":63,"w":64,"x":65,"y":66,"z":67,"{":68,"|":69,"}":70,"~":71,"":72,"":73,"":74,"¡":75,"¢":76,"£":77,"¥":78,"§":79,"¨":80,"©":81,"ª":82,"«":83,"¬":84,"­":85,"®":86,"°":87,"±":88,"²":89,"³":90,"´":91,"µ":92,"·":93,"¹":94,"º":95,"»":96,"¼":97,"½":98,"¾":99,"¿":100,"×":101,"ß":102,"æ":103,"ð":104,"÷":105,"ø":106,"þ":107,"đ":108,"ħ":109,"ı":110,"ĳ":111,"ł":112,"ŋ":113,"œ":114,"ƶ":115,"ǀ":116,"ǁ":117,"ǂ":118,"ǃ":119,"ȷ":120,"ɐ":121,"ɑ":122,"ɒ":123,"ɓ":124,"ɔ":125,"ɕ":126,"ɖ":127,"ɘ":128,"ə":129,"ɚ":130,"ɛ":131,"ɜ":132,"ɝ":133,"ɟ":134,"ɡ":135,"ɣ":136,"ɤ":137,"ɥ":138,"ɦ":139,"ɧ":140,"ɨ":141,"ɪ":142,"ɫ":143,"ɬ":144,"ɭ":145,"ɮ":146,"ɯ":147,"ɰ":148,"ɲ":149,"ɳ":150,"ɴ":151,"ɵ":152,"ɸ":153,"ɹ":154,"ɻ":155,"ɽ":156,"ɾ":157,"ʀ":158,"ʁ":159,"ʂ":160,"ʃ":161,"ʈ":162,"ʉ":163,"ʊ":164,"ʋ":165,"ʌ":166,"ʍ":167,"ʎ":168,"ʏ":169,"ʐ":170,"ʑ":171,"ʒ":172,"ʔ":173,"ʕ":174,"ʝ":175,"ʣ":176,"ʤ":177,"ʥ":178,"ʦ":179,"ʧ":180,"ʨ":181,"ʰ":182,"ʱ":183,"ʲ":184,"ʷ":185,"ʸ":186,"ʹ":187,"ʻ":188,"ʼ":189,"ʾ":190,"ʿ":191,"ˀ":192,"ˇ":193,"ˈ":194,"ˊ":195,"ˋ":196,"ˌ":197,"ː":198,"ˑ":199,"˙":200,"˚":201,"ˠ":202,"ˢ":203,"ˤ":204,"˥":205,"˧":206,"˨":207,"˩":208,"ˮ":209,"α":210,"β":211,"γ":212,"δ":213,"ε":214,"ζ":215,"η":216,"θ":217,"ι":218,"κ":219,"λ":220,"μ":221,"ν":222,"ξ":223,"ο":224,"π":225,"ρ":226,"ς":227,"σ":228,"τ":229,"υ":230,"φ":231,"χ":232,"ψ":233,"ω":234,"ϕ":235,"ϣ":236,"ϯ":237,"а":238,"б":239,"в":240,"г":241,"д":242,"е":243,"ж":244,"з":245,"и":246,"к":247,"л":248,"м":249,"н":250,"о":251,"п":252,"р":253,"с":254,"т":255,"у":256,"ф":257,"х":258,"ц":259,"ч":260,"ш":261,"щ":262,"ъ":263,"ы":264,"ь":265,"э":266,"ю":267,"я":268,"ђ":269,"є":270,"і":271,"ј":272,"љ":273,"њ":274,"ћ":275,"џ":276,"ѣ":277,"ѳ":278,"ґ":279,"ғ":280,"ҕ":281,"ҙ":282,"қ":283,"ҟ":284,"ҡ":285,"ң":286,"ҥ":287,"ҧ":288,"ҭ":289,"ү":290,"ұ":291,"ҳ":292,"ҵ":293,"ҷ":294,"ҹ":295,"һ":296,"ӏ":297,"ӕ":298,"ә":299,"ө":300,"ӷ":301,"ԥ":302,"ա":303,"բ":304,"գ":305,"դ":306,"ե":307,"զ":308,"է":309,"ը":310,"թ":311,"ժ":312,"ի":313,"լ":314,"խ":315,"ծ":316,"կ":317,"հ":318,"ձ":319,"ղ":320,"ճ":321,"մ":322,"յ":323,"ն":324,"շ":325,"ո":326,"չ":327,"պ":328,"ջ":329,"ռ":330,"ս":331,"վ":332,"տ":333,"ր":334,"ց":335,"ւ":336,"փ":337,"ք":338,"օ":339,"ֆ":340,"և":341,"־":342,"א":343,"ב":344,"ג":345,"ד":346,"ה":347,"ו":348,"ז":349,"ח":350,"ט":351,"י":352,"ך":353,"כ":354,"ל":355,"ם":356,"מ":357,"ן":358,"נ":359,"ס":360,"ע":361,"ף":362,"פ":363,"ץ":364,"צ":365,"ק":366,"ר":367,"ש":368,"ת":369,"װ":370,"ײ":371,"״":372,"،":373,"؛":374,"؟":375,"ء":376,"ا":377,"ب":378,"ة":379,"ت":380,"ث":381,"ج":382,"ح":383,"خ":384,"د":385,"ذ":386,"ر":387,"ز":388,"س":389,"ش":390,"ص":391,"ض":392,"ط":393,"ظ":394,"ع":395,"غ":396,"ـ":397,"ف":398,"ق":399,"ك":400,"ل":401,"م":402,"ن":403,"ه":404,"و":405,"ى":406,"ي":407,"٠":408,"١":409,"٢":410,"٣":411,"٤":412,"٦":413,"٧":414,"٩":415,"ٮ":416,"ٱ":417,"ٹ":418,"ٻ":419,"ټ":420,"ٽ":421,"پ":422,"ڀ":423,"ڄ":424,"څ":425,"چ":426,"ڇ":427,"ڈ":428,"ډ":429,"ڊ":430,"ڌ":431,"ڍ":432,"ڏ":433,"ڑ":434,"ړ":435,"ژ":436,"ڙ":437,"ښ":438,"ڛ":439,"ڠ":440,"ڢ":441,"ڤ":442,"ڥ":443,"ڨ":444,"ک":445,"ڪ":446,"ګ":447,"ڬ":448,"ڭ":449,"گ":450,"ڱ":451,"ڵ":452,"ڶ":453,"ں":454,"ڻ":455,"ھ":456,"ہ":457,"ۃ":458,"ۆ":459,"ۇ":460,"ۈ":461,"ۋ":462,"ی":463,"ۍ":464,"ێ":465,"ۏ":466,"ې":467,"ے":468,"۔":469,"ە":470,"۱":471,"۲":472,"۳":473,"۵":474,"۷":475,"۸":476,"۽":477,"ܐ":478,"ܒ":479,"ܓ":480,"ܕ":481,"ܗ":482,"ܘ":483,"ܙ":484,"ܚ":485,"ܛ":486,"ܝ":487,"ܟ":488,"ܠ":489,"ܡ":490,"ܢ":491,"ܣ":492,"ܥ":493,"ܦ":494,"ܩ":495,"ܪ":496,"ܬ":497,"ݒ":498,"ݣ":499,"ހ":500,"ނ":501,"ރ":502,"ބ":503,"ޅ":504,"ކ":505,"އ":506,"ވ":507,"މ":508,"ފ":509,"ދ":510,"ތ":511,"ލ":512,"ގ":513,"ސ":514,"ޑ":515,"ޒ":516,"ޓ":517,"ޔ":518,"ޖ":519,"ޙ":520,"ޝ":521,"ޢ":522,"ޤ":523,"अ":524,"आ":525,"इ":526,"ई":527,"उ":528,"ऊ":529,"ऋ":530,"ए":531,"ऐ":532,"ऑ":533,"ओ":534,"औ":535,"क":536,"ख":537,"ग":538,"घ":539,"ङ":540,"च":541,"छ":542,"ज":543,"झ":544,"ञ":545,"ट":546,"ठ":547,"ड":548,"ढ":549,"ण":550,"त":551,"थ":552,"द":553,"ध":554,"न":555,"प":556,"फ":557,"ब":558,"भ":559,"म":560,"य":561,"र":562,"ल":563,"ळ":564,"व":565,"श":566,"ष":567,"स":568,"ह":569,"०":570,"२":571,"३":572,"॰":573,"অ":574,"আ":575,"ই":576,"ঈ":577,"উ":578,"ঊ":579,"এ":580,"ও":581,"ক":582,"খ":583,"গ":584,"ঘ":585,"ঙ":586,"চ":587,"ছ":588,"জ":589,"ঝ":590,"ঞ":591,"ট":592,"ঠ":593,"ড":594,"ঢ":595,"ণ":596,"ত":597,"থ":598,"দ":599,"ধ":600,"ন":601,"প":602,"ফ":603,"ব":604,"ভ":605,"ম":606,"য":607,"র":608,"ল":609,"শ":610,"ষ":611,"স":612,"হ":613,"ৎ":614,"০":615,"১":616,"২":617,"৩":618,"৭":619,"৮":620,"৯":621,"ৰ":622,"ৱ":623,"ਅ":624,"ਆ":625,"ਇ":626,"ਈ":627,"ਉ":628,"ਏ":629,"ਕ":630,"ਖ":631,"ਗ":632,"ਘ":633,"ਚ":634,"ਛ":635,"ਜ":636,"ਝ":637,"ਟ":638,"ਠ":639,"ਡ":640,"ਣ":641,"ਤ":642,"ਥ":643,"ਦ":644,"ਧ":645,"ਨ":646,"ਪ":647,"ਫ":648,"ਬ":649,"ਭ":650,"ਮ":651,"ਯ":652,"ਰ":653,"ਲ":654,"ਵ":655,"ਸ":656,"ਹ":657,"ੜ":658,"અ":659,"ઇ":660,"ઈ":661,"ક":662,"ખ":663,"ગ":664,"ચ":665,"જ":666,"ટ":667,"ઠ":668,"ડ":669,"ઢ":670,"ણ":671,"ત":672,"થ":673,"દ":674,"ધ":675,"ન":676,"પ":677,"બ":678,"ભ":679,"મ":680,"ય":681,"ર":682,"લ":683,"ળ":684,"વ":685,"શ":686,"ષ":687,"સ":688,"હ":689,"ଅ":690,"ଆ":691,"ଇ":692,"ଉ":693,"ଏ":694,"ଓ":695,"କ":696,"ଖ":697,"ଗ":698,"ଘ":699,"ଙ":700,"ଚ":701,"ଜ":702,"ଝ":703,"ଞ":704,"ଟ":705,"ଠ":706,"ଡ":707,"ଢ":708,"ଣ":709,"ତ":710,"ଥ":711,"ଦ":712,"ଧ":713,"ନ":714,"ପ":715,"ଫ":716,"ବ":717,"ଭ":718,"ମ":719,"ଯ":720,"ର":721,"ଲ":722,"ଳ":723,"ଵ":724,"ଶ":725,"ଷ":726,"ସ":727,"ହ":728,"ୟ":729,"ୱ":730,"ஃ":731,"அ":732,"ஆ":733,"இ":734,"ஈ":735,"உ":736,"ஊ":737,"எ":738,"ஏ":739,"ஐ":740,"ஒ":741,"ஓ":742,"க":743,"ங":744,"ச":745,"ஜ":746,"ஞ":747,"ட":748,"ண":749,"த":750,"ந":751,"ன":752,"ப":753,"ம":754,"ய":755,"ர":756,"ற":757,"ல":758,"ள":759,"ழ":760,"வ":761,"ஷ":762,"ஸ":763,"ஹ":764,"అ":765,"ఆ":766,"ఇ":767,"ఈ":768,"ఉ":769,"ఎ":770,"ఏ":771,"ఐ":772,"ఒ":773,"ఓ":774,"క":775,"ఖ":776,"గ":777,"ఘ":778,"ఙ":779,"చ":780,"జ":781,"ఞ":782,"ట":783,"ఠ":784,"డ":785,"ణ":786,"త":787,"థ":788,"ద":789,"ధ":790,"న":791,"ప":792,"ఫ":793,"బ":794,"భ":795,"మ":796,"య":797,"ర":798,"ఱ":799,"ల":800,"ళ":801,"వ":802,"శ":803,"ష":804,"స":805,"హ":806,"౦":807,"ಅ":808,"ಆ":809,"ಇ":810,"ಈ":811,"ಉ":812,"ಎ":813,"ಏ":814,"ಐ":815,"ಒ":816,"ಓ":817,"ಕ":818,"ಖ":819,"ಗ":820,"ಘ":821,"ಚ":822,"ಛ":823,"ಜ":824,"ಞ":825,"ಟ":826,"ಠ":827,"ಡ":828,"ಣ":829,"ತ":830,"ಥ":831,"ದ":832,"ಧ":833,"ನ":834,"ಪ":835,"ಫ":836,"ಬ":837,"ಭ":838,"ಮ":839,"ಯ":840,"ರ":841,"ಲ":842,"ಳ":843,"ವ":844,"ಶ":845,"ಷ":846,"ಸ":847,"ಹ":848,"೦":849,"೯":850,"അ":851,"ആ":852,"ഇ":853,"ഈ":854,"ഉ":855,"ഊ":856,"ഋ":857,"എ":858,"ഏ":859,"ഐ":860,"ഒ":861,"ഓ":862,"ക":863,"ഖ":864,"ഗ":865,"ങ":866,"ച":867,"ഛ":868,"ജ":869,"ഞ":870,"ട":871,"ഠ":872,"ഡ":873,"ണ":874,"ത":875,"ഥ":876,"ദ":877,"ധ":878,"ന":879,"പ":880,"ഫ":881,"ബ":882,"ഭ":883,"മ":884,"യ":885,"ര":886,"റ":887,"ല":888,"ള":889,"ഴ":890,"വ":891,"ശ":892,"ഷ":893,"സ":894,"ഹ":895,"൪":896,"ൺ":897,"ൻ":898,"ർ":899,"ൽ":900,"ൾ":901,"අ":902,"ආ":903,"ඇ":904,"ඉ":905,"උ":906,"ඌ":907,"එ":908,"ඒ":909,"ඔ":910,"ක":911,"ග":912,"ඝ":913,"ඞ":914,"ඟ":915,"ච":916,"ජ":917,"ට":918,"ඨ":919,"ඩ":920,"ණ":921,"ත":922,"ථ":923,"ද":924,"ධ":925,"න":926,"ඳ":927,"ප":928,"බ":929,"භ":930,"ම":931,"ඹ":932,"ය":933,"ර":934,"ල":935,"ව":936,"ශ":937,"ෂ":938,"ස":939,"හ":940,"ළ":941,"ෆ":942,"ก":943,"ข":944,"ค":945,"ฅ":946,"ฆ":947,"ง":948,"จ":949,"ฉ":950,"ช":951,"ซ":952,"ญ":953,"ฎ":954,"ฏ":955,"ฐ":956,"ฑ":957,"ฒ":958,"ณ":959,"ด":960,"ต":961,"ถ":962,"ท":963,"ธ":964,"น":965,"บ":966,"ป":967,"ผ":968,"ฝ":969,"พ":970,"ฟ":971,"ภ":972,"ม":973,"ย":974,"ร":975,"ฤ":976,"ล":977,"ว":978,"ศ":979,"ษ":980,"ส":981,"ห":982,"ฬ":983,"อ":984,"ฮ":985,"ฯ":986,"ะ":987,"า":988,"ำ":989,"เ":990,"แ":991,"โ":992,"ใ":993,"ไ":994,"ກ":995,"ຄ":996,"ງ":997,"ຈ":998,"ຊ":999,"ຍ":1000,"ດ":1001,"ຕ":1002,"ທ":1003,"ນ":1004,"ບ":1005,"ຝ":1006,"ພ":1007,"ມ":1008,"ຢ":1009,"ລ":1010,"ວ":1011,"ສ":1012,"ຫ":1013,"ອ":1014,"ຮ":1015,"ະ":1016,"າ":1017,"ຳ":1018,"ຽ":1019,"ເ":1020,"ໂ":1021,"ໃ":1022,"ໄ":1023,"་":1024,"།":1025,"ཀ":1026,"ཁ":1027,"ག":1028,"ང":1029,"ཆ":1030,"ཇ":1031,"ཉ":1032,"ཏ":1033,"ཐ":1034,"ད":1035,"ན":1036,"པ":1037,"ཕ":1038,"བ":1039,"མ":1040,"ཙ":1041,"ཚ":1042,"ཛ":1043,"ཟ":1044,"འ":1045,"ཡ":1046,"ར":1047,"ལ":1048,"ཤ":1049,"ས":1050,"ཨ":1051,"က":1052,"ခ":1053,"ဂ":1054,"င":1055,"စ":1056,"ဆ":1057,"ဇ":1058,"ဈ":1059,"ဉ":1060,"ည":1061,"ဋ":1062,"ဌ":1063,"ဏ":1064,"တ":1065,"ထ":1066,"ဒ":1067,"ဓ":1068,"န":1069,"ပ":1070,"ဖ":1071,"ဗ":1072,"ဘ":1073,"မ":1074,"ယ":1075,"ရ":1076,"လ":1077,"ဝ":1078,"သ":1079,"ဟ":1080,"ဠ":1081,"အ":1082,"ဥ":1083,"ဧ":1084,"၁":1085,"၂":1086,"၃":1087,"၄":1088,"၅":1089,"၆":1090,"၉":1091,"၊":1092,"၏":1093,"ၿ":1094,"ა":1095,"ბ":1096,"გ":1097,"დ":1098,"ე":1099,"ვ":1100,"ზ":1101,"თ":1102,"ი":1103,"კ":1104,"ლ":1105,"მ":1106,"ნ":1107,"ო":1108,"პ":1109,"ჟ":1110,"რ":1111,"ს":1112,"ტ":1113,"უ":1114,"ფ":1115,"ქ":1116,"ღ":1117,"ყ":1118,"შ":1119,"ჩ":1120,"ც":1121,"ძ":1122,"წ":1123,"ჭ":1124,"ხ":1125,"ჯ":1126,"ჰ":1127,"ᄀ":1128,"ᄁ":1129,"ᄂ":1130,"ᄃ":1131,"ᄄ":1132,"ᄅ":1133,"ᄆ":1134,"ᄇ":1135,"ᄈ":1136,"ᄉ":1137,"ᄊ":1138,"ᄋ":1139,"ᄌ":1140,"ᄍ":1141,"ᄎ":1142,"ᄏ":1143,"ᄐ":1144,"ᄑ":1145,"ᄒ":1146,"ᅡ":1147,"ᅢ":1148,"ᅣ":1149,"ᅥ":1150,"ᅦ":1151,"ᅧ":1152,"ᅨ":1153,"ᅩ":1154,"ᅪ":1155,"ᅫ":1156,"ᅬ":1157,"ᅭ":1158,"ᅮ":1159,"ᅯ":1160,"ᅰ":1161,"ᅱ":1162,"ᅲ":1163,"ᅳ":1164,"ᅴ":1165,"ᅵ":1166,"ᆨ":1167,"ᆫ":1168,"ᆭ":1169,"ᆮ":1170,"ᆯ":1171,"ᆰ":1172,"ᆶ":1173,"ᆷ":1174,"ᆸ":1175,"ᆹ":1176,"ᆺ":1177,"ᆻ":1178,"ᆼ":1179,"ᆽ":1180,"ᆾ":1181,"ᇀ":1182,"ᇁ":1183,"ᇂ":1184,"ሀ":1185,"ሁ":1186,"ሃ":1187,"ሄ":1188,"ህ":1189,"ሆ":1190,"ለ":1191,"ሉ":1192,"ሊ":1193,"ላ":1194,"ል":1195,"ሐ":1196,"ሓ":1197,"ሕ":1198,"መ":1199,"ሙ":1200,"ሚ":1201,"ማ":1202,"ሜ":1203,"ም":1204,"ሞ":1205,"ሠ":1206,"ሣ":1207,"ረ":1208,"ሩ":1209,"ሪ":1210,"ራ":1211,"ሬ":1212,"ር":1213,"ሮ":1214,"ሰ":1215,"ሱ":1216,"ሲ":1217,"ሳ":1218,"ሴ":1219,"ስ":1220,"ሶ":1221,"ሸ":1222,"ሻ":1223,"ሾ":1224,"ቀ":1225,"ቂ":1226,"ቅ":1227,"በ":1228,"ቡ":1229,"ቢ":1230,"ባ":1231,"ብ":1232,"ቨ":1233,"ተ":1234,"ቱ":1235,"ቲ":1236,"ታ":1237,"ቴ":1238,"ት":1239,"ቶ":1240,"ቸ":1241,"ች":1242,"ኃ":1243,"ኋ":1244,"ነ":1245,"ኒ":1246,"ና":1247,"ን":1248,"ኖ":1249,"ኝ":1250,"አ":1251,"ኢ":1252,"ኣ":1253,"ኤ":1254,"እ":1255,"ከ":1256,"ኩ":1257,"ኪ":1258,"ካ":1259,"ክ":1260,"ኮ":1261,"ኸ":1262,"ወ":1263,"ዊ":1264,"ዋ":1265,"ው":1266,"ዎ":1267,"ዓ":1268,"ዕ":1269,"ዜ":1270,"ዝ":1271,"ዢ":1272,"የ":1273,"ዩ":1274,"ያ":1275,"ይ":1276,"ዮ":1277,"ደ":1278,"ዲ":1279,"ዳ":1280,"ዴ":1281,"ድ":1282,"ዸ":1283,"ዻ":1284,"ጀ":1285,"ጆ":1286,"ገ":1287,"ጉ":1288,"ጊ":1289,"ጋ":1290,"ጌ":1291,"ግ":1292,"ጣ":1293,"ጤ":1294,"ጥ":1295,"ጨ":1296,"ጵ":1297,"ጻ":1298,"ጽ":1299,"ፅ":1300,"ፈ":1301,"ፍ":1302,"ፕ":1303,"፡":1304,"፭":1305,"፻":1306,"ᐃ":1307,"ᐅ":1308,"ᐊ":1309,"ᐋ":1310,"ᐣ":1311,"ᐦ":1312,"ᐧ":1313,"ᐱ":1314,"ᐲ":1315,"ᐳ":1316,"ᐸ":1317,"ᑉ":1318,"ᑎ":1319,"ᑐ":1320,"ᑕ":1321,"ᑦ":1322,"ᑫ":1323,"ᑭ":1324,"ᑯ":1325,"ᑰ":1326,"ᑲ":1327,"ᒃ":1328,"ᒌ":1329,"ᒥ":1330,"ᒦ":1331,"ᒪ":1332,"ᓂ":1333,"ᓄ":1334,"ᓅ":1335,"ᓇ":1336,"ᓐ":1337,"ᓕ":1338,"ᓗ":1339,"ᓛ":1340,"ᓪ":1341,"ᓯ":1342,"ᓱ":1343,"ᓲ":1344,"ᓴ":1345,"ᔨ":1346,"ᔩ":1347,"ᔪ":1348,"ᔾ":1349,"ᕆ":1350,"ᕇ":1351,"ᕈ":1352,"ᕋ":1353,"ᕐ":1354,"ᕕ":1355,"ᕗ":1356,"ᕙ":1357,"ᕝ":1358,"ᖀ":1359,"ᖁ":1360,"ᖃ":1361,"ᖅ":1362,"ᖏ":1363,"ᖓ":1364,"ក":1365,"ខ":1366,"គ":1367,"ឃ":1368,"ង":1369,"ច":1370,"ឆ":1371,"ជ":1372,"ឈ":1373,"ញ":1374,"ដ":1375,"ឋ":1376,"ឌ":1377,"ណ":1378,"ត":1379,"ថ":1380,"ទ":1381,"ធ":1382,"ន":1383,"ប":1384,"ផ":1385,"ព":1386,"ភ":1387,"ម":1388,"យ":1389,"រ":1390,"ល":1391,"វ":1392,"ស":1393,"ហ":1394,"ឡ":1395,"អ":1396,"᠎":1397,"ᠠ":1398,"ᠡ":1399,"ᠢ":1400,"ᠣ":1401,"ᠤ":1402,"ᠥ":1403,"ᠦ":1404,"ᠨ":1405,"ᠩ":1406,"ᠪ":1407,"ᠭ":1408,"ᠯ":1409,"ᠰ":1410,"ᠲ":1411,"ᠴ":1412,"ᠶ":1413,"ᠷ":1414,"ᠸ":1415,"ᠺ":1416,"ᡝ":1417,"ᡞ":1418,"ᡠ":1419,"ᡡ":1420,"ᡣ":1421,"ᡤ":1422,"ᡥ":1423,"ᡧ":1424,"ᡳ":1425,"ᡴ":1426,"ᡵ":1427,"ᡶ":1428,"ᴀ":1429,"ᴇ":1430,"ᴋ":1431,"ᶞ":1432,"​":1433,"‌":1434,"‍":1435,"‎":1436,"‏":1437,"‐":1438,"‑":1439,"‒":1440,"–":1441,"—":1442,"―":1443,"‘":1444,"’":1445,"‚":1446,"‛":1447,"“":1448,"”":1449,"„":1450,"†":1451,"•":1452,"…":1453,"‫":1454,"‰":1455,"′":1456,"″":1457,"‼":1458,"‿":1459,"⁄":1460,"⁊":1461,"ⁱ":1462,"⁴":1463,"⁵":1464,"⁶":1465,"⁽":1466,"⁾":1467,"ⁿ":1468,"₤":1469,"₧":1470,"₨":1471,"₩":1472,"€":1473,"₳":1474,"₵":1475,"℃":1476,"№":1477,"™":1478,"⅓":1479,"⅔":1480,"⅛":1481,"⅜":1482,"⅝":1483,"ⅱ":1484,"ⅳ":1485,"ⅴ":1486,"←":1487,"↑":1488,"→":1489,"↓":1490,"↔":1491,"∀":1492,"∃":1493,"∏":1494,"−":1495,"∙":1496,"√":1497,"∞":1498,"∧":1499,"≈":1500,"≤":1501,"⋅":1502,"⎯":1503,"①":1504,"③":1505,"⑧":1506,"⑬":1507,"─":1508,"□":1509,"◆":1510,"○":1511,"●":1512,"★":1513,"☆":1514,"♀":1515,"♂":1516,"♙":1517,"♠":1518,"♣":1519,"♥":1520,"♦":1521,"♪":1522,"♭":1523,"♯":1524,"ⲁ":1525,"ⲃ":1526,"ⲅ":1527,"ⲇ":1528,"ⲉ":1529,"ⲏ":1530,"ⲑ":1531,"ⲓ":1532,"ⲕ":1533,"ⲗ":1534,"ⲙ":1535,"ⲛ":1536,"ⲝ":1537,"ⲟ":1538,"ⲡ":1539,"ⲣ":1540,"ⲥ":1541,"ⲧ":1542,"ⲩ":1543,"ⲫ":1544,"ⲭ":1545,"ⲱ":1546,"⳿":1547,"ⴰ":1548,"ⴽ":1549,"ⵉ":1550,"ⵏ":1551,"ⵛ":1552,"ⵜ":1553,"ⵣ":1554,"、":1555,"。":1556,"々":1557,"〇":1558,"〈":1559,"〉":1560,"《":1561,"》":1562,"「":1563,"」":1564,"『":1565,"』":1566,"【":1567,"】":1568,"〜":1569,"ぁ":1570,"あ":1571,"ぃ":1572,"い":1573,"う":1574,"ぇ":1575,"え":1576,"お":1577,"か":1578,"き":1579,"く":1580,"け":1581,"こ":1582,"さ":1583,"し":1584,"す":1585,"せ":1586,"そ":1587,"た":1588,"ち":1589,"っ":1590,"つ":1591,"て":1592,"と":1593,"な":1594,"に":1595,"ぬ":1596,"ね":1597,"の":1598,"は":1599,"ひ":1600,"ふ":1601,"へ":1602,"ほ":1603,"ま":1604,"み":1605,"む":1606,"め":1607,"も":1608,"ゃ":1609,"や":1610,"ゅ":1611,"ゆ":1612,"ょ":1613,"よ":1614,"ら":1615,"り":1616,"る":1617,"れ":1618,"ろ":1619,"わ":1620,"ゐ":1621,"ゑ":1622,"を":1623,"ん":1624,"ゝ":1625,"ァ":1626,"ア":1627,"ィ":1628,"イ":1629,"ゥ":1630,"ウ":1631,"ェ":1632,"エ":1633,"ォ":1634,"オ":1635,"カ":1636,"キ":1637,"ク":1638,"ケ":1639,"コ":1640,"サ":1641,"シ":1642,"ス":1643,"セ":1644,"ソ":1645,"タ":1646,"チ":1647,"ッ":1648,"ツ":1649,"テ":1650,"ト":1651,"ナ":1652,"ニ":1653,"ヌ":1654,"ネ":1655,"ノ":1656,"ハ":1657,"ヒ":1658,"フ":1659,"ヘ":1660,"ホ":1661,"マ":1662,"ミ":1663,"ム":1664,"メ":1665,"モ":1666,"ャ":1667,"ヤ":1668,"ュ":1669,"ユ":1670,"ョ":1671,"ヨ":1672,"ラ":1673,"リ":1674,"ル":1675,"レ":1676,"ロ":1677,"ワ":1678,"ヱ":1679,"ヲ":1680,"ン":1681,"ヶ":1682,"・":1683,"ー":1684,"ㄅ":1685,"ㄈ":1686,"ㄍ":1687,"ㄎ":1688,"ㄖ":1689,"ㄛ":1690,"ㄠ":1691,"ㄨ":1692,"ㄩ":1693,"ㅎ":1694,"ㇰ":1695,"㈜":1696,"㋮":1697,"㎡":1698,"一":1699,"丁":1700,"七":1701,"万":1702,"丈":1703,"三":1704,"上":1705,"下":1706,"不":1707,"与":1708,"专":1709,"世":1710,"丘":1711,"丙":1712,"业":1713,"丛":1714,"东":1715,"丝":1716,"丞":1717,"両":1718,"两":1719,"严":1720,"並":1721,"个":1722,"中":1723,"丰":1724,"串":1725,"临":1726,"丸":1727,"丹":1728,"为":1729,"主":1730,"丽":1731,"乃":1732,"久":1733,"么":1734,"义":1735,"之":1736,"乌":1737,"乍":1738,"乎":1739,"乏":1740,"乐":1741,"乔":1742,"乗":1743,"乙":1744,"九":1745,"乞":1746,"也":1747,"乡":1748,"书":1749,"买":1750,"乱":1751,"乳":1752,"乾":1753,"亀":1754,"了":1755,"予":1756,"争":1757,"事":1758,"二":1759,"于":1760,"云":1761,"互":1762,"五":1763,"井":1764,"亘":1765,"亚":1766,"些":1767,"亜":1768,"亞":1769,"亡":1770,"亢":1771,"交":1772,"亦":1773,"产":1774,"亨":1775,"亩":1776,"享":1777,"京":1778,"亭":1779,"亮":1780,"亲":1781,"人":1782,"什":1783,"仁":1784,"仄":1785,"仆":1786,"仇":1787,"今":1788,"介":1789,"仏":1790,"仑":1791,"仓":1792,"仔":1793,"仕":1794,"他":1795,"付":1796,"仙":1797,"代":1798,"令":1799,"以":1800,"仪":1801,"们":1802,"仮":1803,"仰":1804,"仲":1805,"件":1806,"任":1807,"份":1808,"仿":1809,"企":1810,"伊":1811,"伍":1812,"伏":1813,"休":1814,"众":1815,"优":1816,"伙":1817,"会":1818,"伝":1819,"伟":1820,"传":1821,"伦":1822,"伯":1823,"估":1824,"伴":1825,"伶":1826,"伸":1827,"似":1828,"伽":1829,"位":1830,"低":1831,"住":1832,"佐":1833,"佑":1834,"体":1835,"何":1836,"余":1837,"佛":1838,"作":1839,"你":1840,"佩":1841,"佰":1842,"佳":1843,"使":1844,"侃":1845,"來":1846,"侍":1847,"侑":1848,"侚":1849,"供":1850,"依":1851,"侠":1852,"価":1853,"侣":1854,"侨":1855,"侯":1856,"侵":1857,"侶":1858,"便":1859,"係":1860,"俊":1861,"俎":1862,"俏":1863,"俗":1864,"俚":1865,"保":1866,"俞":1867,"俠":1868,"信":1869,"俣":1870,"俩":1871,"俬":1872,"俭":1873,"修":1874,"俯":1875,"俵":1876,"俺":1877,"倉":1878,"個":1879,"倍":1880,"們":1881,"倖":1882,"候":1883,"借":1884,"倩":1885,"倪":1886,"倫":1887,"倶":1888,"倾":1889,"假":1890,"偉":1891,"偕":1892,"做":1893,"停":1894,"健":1895,"側":1896,"偵":1897,"偷":1898,"偽":1899,"傅":1900,"傑":1901,"備":1902,"傢":1903,"储":1904,"傳":1905,"傷":1906,"僊":1907,"働":1908,"像":1909,"僑":1910,"僕":1911,"僚":1912,"僧":1913,"僮":1914,"儀":1915,"億":1916,"儒":1917,"優":1918,"儲":1919,"儷":1920,"儿":1921,"允":1922,"元":1923,"兄":1924,"充":1925,"兆":1926,"先":1927,"光":1928,"克":1929,"兎":1930,"児":1931,"兒":1932,"兖":1933,"兗":1934,"党":1935,"兜":1936,"入":1937,"內":1938,"全":1939,"兩":1940,"八":1941,"公":1942,"六":1943,"兰":1944,"共":1945,"关":1946,"兴":1947,"兵":1948,"其":1949,"具":1950,"典":1951,"兹":1952,"养":1953,"兼":1954,"冀":1955,"内":1956,"円":1957,"冈":1958,"冊":1959,"再":1960,"冑":1961,"冒":1962,"写":1963,"军":1964,"农":1965,"冠":1966,"冢":1967,"冥":1968,"冨":1969,"冬":1970,"冯":1971,"冰":1972,"冲":1973,"决":1974,"冴":1975,"冶":1976,"冷":1977,"凄":1978,"准":1979,"凉":1980,"凌":1981,"凍":1982,"凛":1983,"凝":1984,"凡":1985,"凤":1986,"処":1987,"凧":1988,"凪":1989,"凯":1990,"凰":1991,"凱":1992,"凶":1993,"凸":1994,"出":1995,"击":1996,"函":1997,"刀":1998,"刁":1999,"刃":2000,"分":2001,"切":2002,"刈":2003,"刊":2004,"刑":2005,"划":2006,"列":2007,"刘":2008,"则":2009,"刚":2010,"创":2011,"初":2012,"判":2013,"別":2014,"利":2015,"别":2016,"刮":2017,"到":2018,"制":2019,"刷":2020,"券":2021,"刹":2022,"刺":2023,"刻":2024,"則":2025,"削":2026,"剋":2027,"剌":2028,"前":2029,"剑":2030,"剛":2031,"剣":2032,"剧":2033,"剪":2034,"剱":2035,"創":2036,"劃":2037,"劇":2038,"劉":2039,"劍":2040,"劒":2041,"力":2042,"办":2043,"功":2044,"加":2045,"务":2046,"劣":2047,"动":2048,"助":2049,"努":2050,"劳":2051,"労":2052,"効":2053,"势":2054,"勁":2055,"勅":2056,"勇":2057,"勉":2058,"勋":2059,"勒":2060,"動":2061,"勘":2062,"務":2063,"勝":2064,"勞":2065,"勢":2066,"勤":2067,"勧":2068,"勰":2069,"勲":2070,"勳":2071,"勿":2072,"匂":2073,"包":2074,"化":2075,"北":2076,"匙":2077,"匠":2078,"匡":2079,"匣":2080,"匪":2081,"匯":2082,"匹":2083,"区":2084,"医":2085,"區":2086,"十":2087,"千":2088,"升":2089,"午":2090,"卉":2091,"半":2092,"华":2093,"协":2094,"卑":2095,"卒":2096,"卓":2097,"協":2098,"单":2099,"南":2100,"単":2101,"博":2102,"卜":2103,"占":2104,"卡":2105,"卢":2106,"卫":2107,"卯":2108,"印":2109,"危":2110,"却":2111,"卿":2112,"厂":2113,"历":2114,"厚":2115,"厝":2116,"原":2117,"厦":2118,"厨":2119,"厲":2120,"厳":2121,"去":2122,"县":2123,"参":2124,"參":2125,"又":2126,"叉":2127,"及":2128,"友":2129,"双":2130,"反":2131,"収":2132,"发":2133,"叔":2134,"取":2135,"受":2136,"变":2137,"叡":2138,"叢":2139,"口":2140,"古":2141,"只":2142,"叫":2143,"召":2144,"可":2145,"台":2146,"史":2147,"右":2148,"叶":2149,"号":2150,"司":2151,"叹":2152,"吁":2153,"吃":2154,"各":2155,"合":2156,"吉":2157,"吊":2158,"同":2159,"名":2160,"后":2161,"吏":2162,"向":2163,"吒":2164,"吔":2165,"吕":2166,"君":2167,"吞":2168,"吟":2169,"吧":2170,"启":2171,"吳":2172,"吴":2173,"吶":2174,"吸":2175,"吹":2176,"吻":2177,"吼":2178,"吾":2179,"呀":2180,"呂":2181,"呉":2182,"告":2183,"呑":2184,"呖":2185,"员":2186,"周":2187,"呪":2188,"呱":2189,"味":2190,"呼":2191,"命":2192,"咀":2193,"和":2194,"咎":2195,"咕":2196,"咖":2197,"咪":2198,"咲":2199,"咳":2200,"咸":2201,"哀":2202,"品":2203,"哈":2204,"哉":2205,"响":2206,"員":2207,"哥":2208,"哨":2209,"哪":2210,"哭":2211,"哮":2212,"哲":2213,"唄":2214,"唇":2215,"唐":2216,"唔":2217,"唯":2218,"唱":2219,"商":2220,"啊":2221,"問":2222,"啓":2223,"啟":2224,"啡":2225,"啤":2226,"啦":2227,"啮":2228,"啲":2229,"啸":2230,"啼":2231,"喀":2232,"喃":2233,"善":2234,"喆":2235,"喇":2236,"喊":2237,"喋":2238,"喘":2239,"喚":2240,"喜":2241,"喧":2242,"喪":2243,"喫":2244,"喬":2245,"單":2246,"喰":2247,"営":2248,"喷":2249,"喻":2250,"嗎":2251,"嗣":2252,"嘆":2253,"嘉":2254,"嘎":2255,"嘘":2256,"嘩":2257,"嘯":2258,"嘴":2259,"噂":2260,"噛":2261,"器":2262,"噴":2263,"嚴":2264,"囁":2265,"囃":2266,"囍":2267,"囚":2268,"四":2269,"回":2270,"囡":2271,"团":2272,"団":2273,"囧":2274,"园":2275,"囲":2276,"図":2277,"围":2278,"国":2279,"图":2280,"圃":2281,"圆":2282,"國":2283,"圍":2284,"圏":2285,"園":2286,"圓":2287,"圖":2288,"團":2289,"圜":2290,"土":2291,"圣":2292,"圧":2293,"在":2294,"圩":2295,"圭":2296,"地":2297,"圳":2298,"场":2299,"圻":2300,"址":2301,"坂":2302,"均":2303,"坊":2304,"坑":2305,"块":2306,"坚":2307,"坝":2308,"坡":2309,"坤":2310,"坪":2311,"型":2312,"垠":2313,"垣":2314,"埈":2315,"城":2316,"埔":2317,"域":2318,"埠":2319,"埤":2320,"執":2321,"培":2322,"基":2323,"埻":2324,"埼":2325,"堀":2326,"堂":2327,"堅":2328,"堆":2329,"堇":2330,"堕":2331,"堡":2332,"堤":2333,"堯":2334,"堰":2335,"報":2336,"場":2337,"堺":2338,"塌":2339,"塑":2340,"塔":2341,"塘":2342,"塚":2343,"塩":2344,"塵":2345,"塾":2346,"境":2347,"墅":2348,"墉":2349,"墓":2350,"増":2351,"增":2352,"墟":2353,"墨":2354,"墩":2355,"墮":2356,"墳":2357,"墾":2358,"壁":2359,"壇":2360,"壊":2361,"壞":2362,"壢":2363,"壤":2364,"士":2365,"壬":2366,"壮":2367,"壯":2368,"声":2369,"壱":2370,"売":2371,"壶":2372,"壹":2373,"壺":2374,"壽":2375,"备":2376,"変":2377,"复":2378,"夏":2379,"夕":2380,"外":2381,"夙":2382,"多":2383,"夜":2384,"够":2385,"夢":2386,"大":2387,"天":2388,"太":2389,"夫":2390,"央":2391,"失":2392,"头":2393,"夷":2394,"夺":2395,"奀":2396,"奇":2397,"奈":2398,"奉":2399,"奋":2400,"奎":2401,"奏":2402,"契":2403,"奔":2404,"奕":2405,"奖":2406,"套":2407,"奥":2408,"奧":2409,"奨":2410,"奪":2411,"奮":2412,"女":2413,"奴":2414,"奶":2415,"她":2416,"好":2417,"如":2418,"妃":2419,"妄":2420,"妇":2421,"妈":2422,"妓":2423,"妖":2424,"妙":2425,"妞":2426,"妤":2427,"妮":2428,"妳":2429,"妹":2430,"妻":2431,"姆":2432,"姉":2433,"姊":2434,"始":2435,"姐":2436,"姑":2437,"姓":2438,"委":2439,"姚":2440,"姜":2441,"姦":2442,"姫":2443,"姬":2444,"姶":2445,"姸":2446,"姻":2447,"姿":2448,"威":2449,"娃":2450,"娄":2451,"娇":2452,"娘":2453,"娛":2454,"娜":2455,"娟":2456,"娥":2457,"娱":2458,"娴":2459,"娼":2460,"婆":2461,"婉":2462,"婕":2463,"婚":2464,"婦":2465,"婴":2466,"婷":2467,"媒":2468,"媚":2469,"媛":2470,"媽":2471,"嫁":2472,"嫂":2473,"嫌":2474,"嫻":2475,"嬅":2476,"嬌":2477,"嬢":2478,"嬰":2479,"孃":2480,"子":2481,"孔":2482,"孖":2483,"字":2484,"存":2485,"孙":2486,"孛":2487,"孜":2488,"孝":2489,"孟":2490,"季":2491,"孤":2492,"学":2493,"孩":2494,"孫":2495,"學":2496,"孽":2497,"宁":2498,"宅":2499,"宇":2500,"守":2501,"安":2502,"宋":2503,"完":2504,"宍":2505,"宏":2506,"宕":2507,"宗":2508,"官":2509,"宙":2510,"定":2511,"宛":2512,"宜":2513,"宝":2514,"实":2515,"実":2516,"宠":2517,"审":2518,"客":2519,"宣":2520,"室":2521,"宥":2522,"宪":2523,"宫":2524,"宮":2525,"宰":2526,"害":2527,"宴":2528,"宵":2529,"家":2530,"容":2531,"宽":2532,"宾":2533,"宿":2534,"寂":2535,"寄":2536,"寅":2537,"密":2538,"寇":2539,"富":2540,"寒":2541,"寓":2542,"寛":2543,"寝":2544,"寞":2545,"察":2546,"實":2547,"寧":2548,"寨":2549,"審":2550,"寫":2551,"寬":2552,"寮":2553,"寰":2554,"寳":2555,"寵":2556,"寶":2557,"对":2558,"寺":2559,"导":2560,"対":2561,"寿":2562,"封":2563,"専":2564,"射":2565,"将":2566,"將":2567,"專":2568,"尉":2569,"尊":2570,"尋":2571,"對":2572,"導":2573,"小":2574,"少":2575,"尔":2576,"尕":2577,"尖":2578,"尙":2579,"尚":2580,"尤":2581,"尧":2582,"就":2583,"尹":2584,"尻":2585,"尼":2586,"尽":2587,"尾":2588,"尿":2589,"局":2590,"层":2591,"居":2592,"屈":2593,"届":2594,"屋":2595,"屍":2596,"屏":2597,"展":2598,"属":2599,"屠":2600,"層":2601,"履":2602,"屬":2603,"屯":2604,"山":2605,"岁":2606,"岐":2607,"岑":2608,"岔":2609,"岚":2610,"岛":2611,"岡":2612,"岩":2613,"岬":2614,"岭":2615,"岱":2616,"岳":2617,"岷":2618,"岸":2619,"峙":2620,"峠":2621,"峡":2622,"峨":2623,"峩":2624,"峯":2625,"峰":2626,"島":2627,"峻":2628,"峽":2629,"崃":2630,"崇":2631,"崍":2632,"崎":2633,"崑":2634,"崔":2635,"崖":2636,"崗":2637,"崙":2638,"崛":2639,"崴":2640,"嵋":2641,"嵌":2642,"嵐":2643,"嵜":2644,"嵩":2645,"嵯":2646,"嶋":2647,"嶌":2648,"嶺":2649,"嶽":2650,"巌":2651,"巍":2652,"巖":2653,"川":2654,"州":2655,"巡":2656,"巢":2657,"巣":2658,"工":2659,"左":2660,"巧":2661,"巨":2662,"巫":2663,"差":2664,"己":2665,"已":2666,"巳":2667,"巴":2668,"巻":2669,"巽":2670,"币":2671,"市":2672,"布":2673,"帅":2674,"帆":2675,"师":2676,"希":2677,"帖":2678,"帝":2679,"帥":2680,"带":2681,"師":2682,"席":2683,"帯":2684,"帰":2685,"帳":2686,"帶":2687,"常":2688,"帽":2689,"幅":2690,"幌":2691,"幕":2692,"幗":2693,"幡":2694,"幣":2695,"幫":2696,"干":2697,"平":2698,"年":2699,"幸":2700,"幹":2701,"幻":2702,"幼":2703,"幽":2704,"广":2705,"庁":2706,"広":2707,"庄":2708,"庆":2709,"庇":2710,"床":2711,"序":2712,"庐":2713,"库":2714,"应":2715,"底":2716,"店":2717,"庙":2718,"庚":2719,"府":2720,"庞":2721,"度":2722,"座":2723,"庫":2724,"庭":2725,"庵":2726,"康":2727,"庸":2728,"庾":2729,"廂":2730,"廈":2731,"廉":2732,"廊":2733,"廖":2734,"廚":2735,"廟":2736,"廠":2737,"廣":2738,"廬":2739,"廳":2740,"延":2741,"廷":2742,"建":2743,"廻":2744,"开":2745,"弁":2746,"异":2747,"弋":2748,"式":2749,"弐":2750,"弓":2751,"弔":2752,"引":2753,"弗":2754,"弘":2755,"弛":2756,"弟":2757,"张":2758,"弥":2759,"弦":2760,"弯":2761,"弱":2762,"張":2763,"強":2764,"强":2765,"弼":2766,"弾":2767,"彅":2768,"彊":2769,"彌":2770,"彎":2771,"归":2772,"当":2773,"录":2774,"彗":2775,"形":2776,"彤":2777,"彥":2778,"彦":2779,"彩":2780,"彪":2781,"彬":2782,"彭":2783,"彰":2784,"影":2785,"役":2786,"彻":2787,"彼":2788,"征":2789,"待":2790,"很":2791,"律":2792,"後":2793,"徐":2794,"徒":2795,"従":2796,"得":2797,"從":2798,"御":2799,"復":2800,"循":2801,"微":2802,"徳":2803,"徵":2804,"德":2805,"徹":2806,"徽":2807,"心":2808,"必":2809,"忌":2810,"忍":2811,"志":2812,"忘":2813,"応":2814,"忠":2815,"快":2816,"忱":2817,"念":2818,"忻":2819,"怀":2820,"怒":2821,"怖":2822,"怜":2823,"思":2824,"怡":2825,"急":2826,"性":2827,"怨":2828,"怪":2829,"总":2830,"恆":2831,"恋":2832,"恐":2833,"恒":2834,"恥":2835,"恨":2836,"恩":2837,"恭":2838,"息":2839,"恵":2840,"恺":2841,"恽":2842,"悅":2843,"悚":2844,"悟":2845,"悠":2846,"患":2847,"悦":2848,"悩":2849,"悪":2850,"悲":2851,"悶":2852,"悼":2853,"情":2854,"惊":2855,"惑":2856,"惕":2857,"惜":2858,"惟":2859,"惠":2860,"惨":2861,"想":2862,"惹":2863,"愁":2864,"愈":2865,"意":2866,"愚":2867,"愛":2868,"感":2869,"愷":2870,"愿":2871,"慄":2872,"慈":2873,"態":2874,"慎":2875,"慕":2876,"慢":2877,"慣":2878,"慧":2879,"慬":2880,"慰":2881,"慶":2882,"慾":2883,"憂":2884,"憎":2885,"憐":2886,"憚":2887,"憧":2888,"憫":2889,"憲":2890,"憶":2891,"應":2892,"懷":2893,"戀":2894,"戈":2895,"戏":2896,"成":2897,"我":2898,"戒":2899,"或":2900,"战":2901,"戚":2902,"戟":2903,"戦":2904,"戯":2905,"戰":2906,"戲":2907,"戴":2908,"戸":2909,"房":2910,"所":2911,"扁":2912,"扇":2913,"扉":2914,"手":2915,"才":2916,"扎":2917,"打":2918,"扦":2919,"扬":2920,"扭":2921,"扮":2922,"扰":2923,"扶":2924,"批":2925,"找":2926,"承":2927,"技":2928,"抄":2929,"把":2930,"抑":2931,"投":2932,"抗":2933,"折":2934,"抚":2935,"択":2936,"报":2937,"披":2938,"抱":2939,"押":2940,"拉":2941,"拍":2942,"拐":2943,"拓":2944,"拔":2945,"拖":2946,"拙":2947,"招":2948,"拜":2949,"拝":2950,"拠":2951,"拡":2952,"拥":2953,"拯":2954,"拳":2955,"拼":2956,"拾":2957,"拿":2958,"持":2959,"指":2960,"挑":2961,"挙":2962,"挚":2963,"挪":2964,"振":2965,"挺":2966,"捉":2967,"捐":2968,"捕":2969,"捜":2970,"捧":2971,"捨":2972,"捷":2973,"掃":2974,"授":2975,"掌":2976,"排":2977,"掛":2978,"採":2979,"探":2980,"控":2981,"推":2982,"措":2983,"描":2984,"提":2985,"插":2986,"揖":2987,"揚":2988,"揮":2989,"援":2990,"揺":2991,"損":2992,"搜":2993,"搞":2994,"携":2995,"摂":2996,"摇":2997,"摘":2998,"摩":2999,"摯":3000,"摸":3001,"摺":3002,"撃":3003,"撒":3004,"撞":3005,"撫":3006,"播":3007,"撮":3008,"撰":3009,"撲":3010,"擂":3011,"擊":3012,"操":3013,"擱":3014,"支":3015,"收":3016,"改":3017,"攻":3018,"放":3019,"政":3020,"故":3021,"敎":3022,"敏":3023,"救":3024,"敖":3025,"敗":3026,"教":3027,"敛":3028,"敢":3029,"散":3030,"敦":3031,"敬":3032,"数":3033,"整":3034,"敵":3035,"敷":3036,"數":3037,"文":3038,"斉":3039,"斋":3040,"斌":3041,"斎":3042,"斐":3043,"斑":3044,"斗":3045,"料":3046,"斛":3047,"斜":3048,"斬":3049,"断":3050,"斯":3051,"新":3052,"斷":3053,"方":3054,"於":3055,"施":3056,"旅":3057,"旋":3058,"族":3059,"旗":3060,"旛":3061,"无":3062,"日":3063,"旦":3064,"旧":3065,"早":3066,"旬":3067,"旭":3068,"时":3069,"旺":3070,"旻":3071,"昀":3072,"昂":3073,"昆":3074,"昇":3075,"昊":3076,"昌":3077,"明":3078,"昏":3079,"易":3080,"昔":3081,"昕":3082,"星":3083,"映":3084,"春":3085,"昧":3086,"昭":3087,"是":3088,"昱":3089,"昴":3090,"昼":3091,"時":3092,"晃":3093,"晉":3094,"晋":3095,"晏":3096,"晓":3097,"晔":3098,"晖":3099,"晚":3100,"晟":3101,"晨":3102,"普":3103,"景":3104,"晴":3105,"晶":3106,"智":3107,"暁":3108,"暉":3109,"暎":3110,"暑":3111,"暖":3112,"暗":3113,"暢":3114,"暦":3115,"暨":3116,"暫":3117,"暮":3118,"暴":3119,"曄":3120,"曉":3121,"曙":3122,"曜":3123,"曦":3124,"曲":3125,"曳":3126,"更":3127,"書":3128,"曹":3129,"曺":3130,"曼":3131,"曽":3132,"曾":3133,"替":3134,"最":3135,"會":3136,"月":3137,"有":3138,"朋":3139,"服":3140,"朔":3141,"朗":3142,"望":3143,"朝":3144,"期":3145,"朦":3146,"木":3147,"未":3148,"末":3149,"本":3150,"札":3151,"术":3152,"朱":3153,"朴":3154,"朵":3155,"机":3156,"杀":3157,"杂":3158,"权":3159,"杄":3160,"杉":3161,"李":3162,"杏":3163,"材":3164,"村":3165,"杜":3166,"杞":3167,"束":3168,"条":3169,"来":3170,"杨":3171,"杭":3172,"杯":3173,"杰":3174,"東":3175,"杵":3176,"杻":3177,"松":3178,"板":3179,"极":3180,"构":3181,"析":3182,"枕":3183,"林":3184,"枚":3185,"果":3186,"枝":3187,"枢":3188,"枣":3189,"枥":3190,"枪":3191,"枫":3192,"枭":3193,"枯":3194,"架":3195,"枸":3196,"柄":3197,"柊":3198,"柏":3199,"柑":3200,"染":3201,"柔":3202,"柘":3203,"柚":3204,"柞":3205,"柠":3206,"查":3207,"柯":3208,"柱":3209,"柳":3210,"柴":3211,"査":3212,"柾":3213,"柿":3214,"栂":3215,"栃":3216,"栄":3217,"标":3218,"栋":3219,"栎":3220,"树":3221,"栖":3222,"栗":3223,"栘":3224,"栝":3225,"校":3226,"株":3227,"核":3228,"根":3229,"格":3230,"栾":3231,"桂":3232,"桃":3233,"案":3234,"桐":3235,"桑":3236,"桜":3237,"桢":3238,"档":3239,"桥":3240,"桦":3241,"桧":3242,"桶":3243,"梁":3244,"梅":3245,"梓":3246,"條":3247,"梠":3248,"梢":3249,"梦":3250,"梨":3251,"梭":3252,"梯":3253,"械":3254,"梶":3255,"棄":3256,"棉":3257,"棋":3258,"棍":3259,"棒":3260,"棕":3261,"棘":3262,"棟":3263,"棠":3264,"棣":3265,"森":3266,"棱":3267,"棲":3268,"棵":3269,"棺":3270,"椋":3271,"植":3272,"椎":3273,"椒":3274,"椙":3275,"検":3276,"椰":3277,"椴":3278,"椿":3279,"楂":3280,"楊":3281,"楓":3282,"楔":3283,"楚":3284,"楝":3285,"楠":3286,"楢":3287,"楨":3288,"業":3289,"極":3290,"楸":3291,"楼":3292,"楽":3293,"榈":3294,"榉":3295,"榊":3296,"榎":3297,"榕":3298,"榛":3299,"榜":3300,"榧":3301,"榮":3302,"榴":3303,"槇":3304,"構":3305,"槍":3306,"槐":3307,"様":3308,"槙":3309,"槟":3310,"槻":3311,"槽":3312,"樂":3313,"樅":3314,"樊":3315,"樋":3316,"樑":3317,"樒":3318,"樓":3319,"樗":3320,"標":3321,"樟":3322,"模":3323,"樣":3324,"樨":3325,"権":3326,"横":3327,"樫":3328,"樱":3329,"樵":3330,"樸":3331,"樹":3332,"樺":3333,"樽":3334,"橋":3335,"橘":3336,"橙":3337,"機":3338,"橫":3339,"橹":3340,"檀":3341,"檎":3342,"檔":3343,"檗":3344,"檜":3345,"檬":3346,"檳":3347,"檸":3348,"檻":3349,"櫃":3350,"櫓":3351,"櫛":3352,"櫟":3353,"櫸":3354,"櫻":3355,"欅":3356,"權":3357,"欒":3358,"次":3359,"欢":3360,"欣":3361,"欧":3362,"欲":3363,"欺":3364,"欽":3365,"歉":3366,"歌":3367,"歐":3368,"歡":3369,"止":3370,"正":3371,"步":3372,"武":3373,"歩":3374,"歯":3375,"歲":3376,"歳":3377,"歴":3378,"歷":3379,"死":3380,"歼":3381,"殊":3382,"残":3383,"殖":3384,"殘":3385,"殤":3386,"殭":3387,"殯":3388,"殲":3389,"段":3390,"殷":3391,"殺":3392,"殻":3393,"殿":3394,"毀":3395,"毅":3396,"母":3397,"毎":3398,"毒":3399,"毓":3400,"比":3401,"毕":3402,"毛":3403,"毫":3404,"毬":3405,"氏":3406,"民":3407,"气":3408,"気":3409,"氣":3410,"水":3411,"氷":3412,"永":3413,"汀":3414,"求":3415,"汇":3416,"汉":3417,"汐":3418,"汕":3419,"汗":3420,"汚":3421,"汝":3422,"江":3423,"池":3424,"汤":3425,"汪":3426,"汲":3427,"汶":3428,"決":3429,"汽":3430,"沂":3431,"沃":3432,"沈":3433,"沉":3434,"沒":3435,"沓":3436,"沖":3437,"沙":3438,"沛":3439,"沟":3440,"没":3441,"沢":3442,"河":3443,"沸":3444,"油":3445,"治":3446,"沼":3447,"泉":3448,"泊":3449,"泌":3450,"泓":3451,"法":3452,"泗":3453,"泛":3454,"泡":3455,"波":3456,"泣":3457,"泥":3458,"泪":3459,"泫":3460,"泰":3461,"泳":3462,"泸":3463,"泽":3464,"洁":3465,"洋":3466,"洗":3467,"洙":3468,"洛":3469,"洞":3470,"津":3471,"洪":3472,"洮":3473,"洱":3474,"洲":3475,"洹":3476,"活":3477,"洽":3478,"派":3479,"流":3480,"浄":3481,"浅":3482,"测":3483,"济":3484,"浑":3485,"浒":3486,"浙":3487,"浜":3488,"浣":3489,"浦":3490,"浩":3491,"浪":3492,"浮":3493,"浴":3494,"海":3495,"浸":3496,"涂":3497,"消":3498,"涉":3499,"涙":3500,"涛":3501,"润":3502,"涯":3503,"液":3504,"涵":3505,"涼":3506,"淀":3507,"淄":3508,"淇":3509,"淑":3510,"淘":3511,"淚":3512,"淞":3513,"淡":3514,"淫":3515,"淮":3516,"深":3517,"淳":3518,"淵":3519,"混":3520,"淸":3521,"淺":3522,"添":3523,"清":3524,"済":3525,"渉":3526,"渋":3527,"渓":3528,"渔":3529,"渕":3530,"渚":3531,"減":3532,"渝":3533,"渠":3534,"渡":3535,"渣":3536,"渤":3537,"渦":3538,"温":3539,"測":3540,"渭":3541,"港":3542,"游":3543,"湄":3544,"湖":3545,"湘":3546,"湛":3547,"湧":3548,"湯":3549,"湾":3550,"満":3551,"溇":3552,"源":3553,"準":3554,"溝":3555,"溥":3556,"溪":3557,"溫":3558,"溲":3559,"溺":3560,"滄":3561,"滅":3562,"滆":3563,"滇":3564,"滉":3565,"滋":3566,"滌":3567,"滑":3568,"滙":3569,"滚":3570,"滝":3571,"滢":3572,"滦":3573,"滨":3574,"滩":3575,"滬":3576,"滸":3577,"滿":3578,"漁":3579,"漂":3580,"漆":3581,"演":3582,"漠":3583,"漢":3584,"漣":3585,"漫":3586,"漱":3587,"漳":3588,"漸":3589,"潇":3590,"潍":3591,"潔":3592,"潘":3593,"潛":3594,"潜":3595,"潟":3596,"潢":3597,"潤":3598,"潭":3599,"潮":3600,"澀":3601,"澁":3602,"澄":3603,"澈":3604,"澍":3605,"澎":3606,"澗":3607,"澜":3608,"澤":3609,"澪":3610,"澱":3611,"澳":3612,"激":3613,"濂":3614,"濃":3615,"濟":3616,"濠":3617,"濡":3618,"濤":3619,"濮":3620,"濰":3621,"濱":3622,"濵":3623,"瀅":3624,"瀋":3625,"瀑":3626,"瀚":3627,"瀛":3628,"瀧":3629,"瀬":3630,"瀾":3631,"灃":3632,"灌":3633,"灘":3634,"灣":3635,"火":3636,"灯":3637,"灰":3638,"灵":3639,"灸":3640,"灼":3641,"災":3642,"灿":3643,"炎":3644,"炜":3645,"炫":3646,"炭":3647,"炮":3648,"炯":3649,"炳":3650,"炷":3651,"炸":3652,"点":3653,"為":3654,"烈":3655,"烏":3656,"烔":3657,"烟":3658,"烫":3659,"热":3660,"烽":3661,"焉":3662,"焕":3663,"焜":3664,"無":3665,"焦":3666,"焯":3667,"然":3668,"焼":3669,"煉":3670,"煊":3671,"煌":3672,"煒":3673,"煕":3674,"煙":3675,"煞":3676,"煤":3677,"煥":3678,"照":3679,"煩":3680,"熈":3681,"熊":3682,"熙":3683,"熟":3684,"熱":3685,"燃":3686,"燈":3687,"燊":3688,"燎":3689,"燒":3690,"燕":3691,"營":3692,"燦":3693,"燧":3694,"燮":3695,"燿":3696,"爀":3697,"爆":3698,"爪":3699,"爬":3700,"爭":3701,"爱":3702,"爲":3703,"爵":3704,"父":3705,"爸":3706,"爺":3707,"爽":3708,"爾":3709,"片":3710,"版":3711,"牌":3712,"牙":3713,"牛":3714,"牝":3715,"牟":3716,"牡":3717,"牧":3718,"物":3719,"特":3720,"犀":3721,"犖":3722,"犬":3723,"犯":3724,"状":3725,"犹":3726,"狀":3727,"狂":3728,"狄":3729,"狐":3730,"狗":3731,"狙":3732,"狛":3733,"狩":3734,"独":3735,"狭":3736,"狮":3737,"狱":3738,"狸":3739,"狼":3740,"猎":3741,"猛":3742,"猟":3743,"猥":3744,"猩":3745,"猪":3746,"猫":3747,"献":3748,"猷":3749,"猿":3750,"獄":3751,"獅":3752,"獎":3753,"獏":3754,"獣":3755,"獨":3756,"獲":3757,"獵":3758,"獸":3759,"獻":3760,"玄":3761,"率":3762,"玉":3763,"王":3764,"玎":3765,"玖":3766,"玛":3767,"玟":3768,"玥":3769,"玩":3770,"玫":3771,"玮":3772,"环":3773,"现":3774,"玲":3775,"玹":3776,"玺":3777,"玻":3778,"珀":3779,"珂":3780,"珅":3781,"珈":3782,"珉":3783,"珊":3784,"珍":3785,"珠":3786,"珩":3787,"珪":3788,"班":3789,"現":3790,"球":3791,"琅":3792,"理":3793,"琇":3794,"琉":3795,"琊":3796,"琚":3797,"琛":3798,"琢":3799,"琦":3800,"琨":3801,"琪":3802,"琬":3803,"琰":3804,"琲":3805,"琳":3806,"琴":3807,"琵":3808,"琶":3809,"琼":3810,"瑀":3811,"瑄":3812,"瑋":3813,"瑚":3814,"瑛":3815,"瑜":3816,"瑞":3817,"瑟":3818,"瑠":3819,"瑤":3820,"瑩":3821,"瑪":3822,"瑰":3823,"瑶":3824,"瑾":3825,"璀":3826,"璃":3827,"璉":3828,"璋":3829,"璐":3830,"璜":3831,"璠":3832,"璨":3833,"環":3834,"璽":3835,"璿":3836,"瓊":3837,"瓜":3838,"瓢":3839,"瓦":3840,"瓮":3841,"瓲":3842,"瓶":3843,"瓷":3844,"甄":3845,"甘":3846,"甚":3847,"甜":3848,"生":3849,"產":3850,"産":3851,"甦":3852,"用":3853,"甫":3854,"甯":3855,"田":3856,"由":3857,"甲":3858,"申":3859,"电":3860,"男":3861,"甸":3862,"町":3863,"画":3864,"畅":3865,"界":3866,"畏":3867,"畑":3868,"留":3869,"畜":3870,"畠":3871,"畢":3872,"略":3873,"番":3874,"畫":3875,"異":3876,"畳":3877,"當":3878,"畸":3879,"畿":3880,"疆":3881,"疊":3882,"疏":3883,"疑":3884,"疗":3885,"疯":3886,"疲":3887,"疾":3888,"病":3889,"痕":3890,"痛":3891,"痧":3892,"痴":3893,"瘋":3894,"療":3895,"癲":3896,"発":3897,"登":3898,"發":3899,"白":3900,"百":3901,"的":3902,"皇":3903,"皐":3904,"皓":3905,"皖":3906,"皮":3907,"盂":3908,"盆":3909,"盈":3910,"益":3911,"监":3912,"盒":3913,"盖":3914,"盗":3915,"盘":3916,"盛":3917,"盜":3918,"盟":3919,"盡":3920,"監":3921,"盤":3922,"盧":3923,"目":3924,"盲":3925,"直":3926,"相":3927,"盾":3928,"省":3929,"眉":3930,"看":3931,"県":3932,"眞":3933,"真":3934,"眠":3935,"眸":3936,"眼":3937,"眾":3938,"着":3939,"睡":3940,"督":3941,"睦":3942,"睫":3943,"睹":3944,"睿":3945,"瞬":3946,"瞰":3947,"瞳":3948,"瞻":3949,"瞿":3950,"矛":3951,"矢":3952,"矣":3953,"知":3954,"矧":3955,"矩":3956,"短":3957,"石":3958,"矽":3959,"矿":3960,"码":3961,"砂":3962,"砌":3963,"研":3964,"砥":3965,"砦":3966,"砲":3967,"破":3968,"砵":3969,"砻":3970,"硃":3971,"硕":3972,"硝":3973,"硫":3974,"硬":3975,"碁":3976,"碇":3977,"碌":3978,"碍":3979,"碎":3980,"碑":3981,"碓":3982,"碟":3983,"碧":3984,"碩":3985,"碰":3986,"碼":3987,"磁":3988,"磊":3989,"磐":3990,"磔":3991,"磨":3992,"磯":3993,"礁":3994,"礦":3995,"礫":3996,"示":3997,"礼":3998,"社":3999,"祇":4000,"祈":4001,"祉":4002,"祐":4003,"祖":4004,"祜":4005,"祝":4006,"神":4007,"祠":4008,"祥":4009,"祭":4010,"祯":4011,"祺":4012,"祿":4013,"禁":4014,"禄":4015,"禅":4016,"禎":4017,"福":4018,"禧":4019,"禮":4020,"禹":4021,"禽":4022,"禾":4023,"禿":4024,"秀":4025,"私":4026,"秉":4027,"秋":4028,"种":4029,"科":4030,"秒":4031,"秘":4032,"租":4033,"秤":4034,"秦":4035,"秩":4036,"积":4037,"称":4038,"移":4039,"稀":4040,"稅":4041,"程":4042,"税":4043,"稔":4044,"稗":4045,"稚":4046,"稠":4047,"種":4048,"稲":4049,"稻":4050,"稿":4051,"穀":4052,"穂":4053,"穆":4054,"積":4055,"穎":4056,"穗":4057,"穢":4058,"穣":4059,"穩":4060,"穴":4061,"究":4062,"空":4063,"突":4064,"窄":4065,"窈":4066,"窓":4067,"窖":4068,"窝":4069,"窩":4070,"竇":4071,"竊":4072,"立":4073,"站":4074,"竜":4075,"竞":4076,"竟":4077,"章":4078,"童":4079,"端":4080,"競":4081,"竹":4082,"竺":4083,"笃":4084,"笈":4085,"笏":4086,"笑":4087,"笔":4088,"笙":4089,"笛":4090,"笠":4091,"符":4092,"笨":4093,"第":4094,"笹":4095,"笼":4096,"筆":4097,"等":4098,"筋":4099,"筏":4100,"筑":4101,"策":4102,"筝":4103,"筧":4104,"筱":4105,"筲":4106,"简":4107,"箏":4108,"箒":4109,"箕":4110,"算":4111,"管":4112,"箭":4113,"箱":4114,"節":4115,"篁":4116,"範":4117,"篇":4118,"築":4119,"篠":4120,"篤":4121,"篮":4122,"簇":4123,"簡":4124,"簿":4125,"籃":4126,"籍":4127,"籟":4128,"籠":4129,"米":4130,"粉":4131,"粗":4132,"粟":4133,"粥":4134,"粧":4135,"粮":4136,"粵":4137,"精":4138,"糕":4139,"糖":4140,"糙":4141,"糞":4142,"糧":4143,"糬":4144,"糸":4145,"系":4146,"紀":4147,"約":4148,"紅":4149,"紋":4150,"納":4151,"紐":4152,"純":4153,"紗":4154,"紘":4155,"紙":4156,"級":4157,"紛":4158,"紜":4159,"素":4160,"索":4161,"紧":4162,"紫":4163,"紮":4164,"細":4165,"紳":4166,"紹":4167,"紺":4168,"終":4169,"絃":4170,"組":4171,"絆":4172,"経":4173,"結":4174,"絕":4175,"絞":4176,"絡":4177,"絢":4178,"給":4179,"統":4180,"絲":4181,"絵":4182,"絶":4183,"絹":4184,"綏":4185,"經":4186,"継":4187,"続":4188,"綜":4189,"綠":4190,"綫":4191,"維":4192,"綱":4193,"網":4194,"綸":4195,"綺":4196,"綽":4197,"綾":4198,"綿":4199,"緊":4200,"緋":4201,"総":4202,"緑":4203,"緒":4204,"線":4205,"緣":4206,"編":4207,"緯":4208,"練":4209,"縁":4210,"縄":4211,"縛":4212,"縣":4213,"縫":4214,"縱":4215,"總":4216,"繁":4217,"繆":4218,"織":4219,"繕":4220,"繚":4221,"繡":4222,"繪":4223,"繰":4224,"繼":4225,"續":4226,"纓":4227,"纜":4228,"红":4229,"约":4230,"级":4231,"纪":4232,"纱":4233,"纲":4234,"纳":4235,"纵":4236,"纶":4237,"线":4238,"织":4239,"终":4240,"绍":4241,"经":4242,"绑":4243,"绒":4244,"结":4245,"绘":4246,"给":4247,"络":4248,"绝":4249,"统":4250,"绣":4251,"绥":4252,"继":4253,"续":4254,"绮":4255,"维":4256,"绵":4257,"综":4258,"绿":4259,"缅":4260,"缘":4261,"缝":4262,"缨":4263,"缪":4264,"缺":4265,"罐":4266,"网":4267,"罕":4268,"罗":4269,"罘":4270,"罪":4271,"置":4272,"罰":4273,"署":4274,"罳":4275,"羅":4276,"羊":4277,"羌":4278,"美":4279,"羚":4280,"羣":4281,"群":4282,"義":4283,"羯":4284,"羲":4285,"羽":4286,"翁":4287,"翅":4288,"翊":4289,"習":4290,"翔":4291,"翠":4292,"翡":4293,"翰":4294,"翳":4295,"翻":4296,"翼":4297,"耀":4298,"老":4299,"考":4300,"者":4301,"耆":4302,"而":4303,"耐":4304,"耕":4305,"耳":4306,"耶":4307,"聂":4308,"聊":4309,"职":4310,"联":4311,"聖":4312,"聘":4313,"聚":4314,"聞":4315,"聡":4316,"聯":4317,"聰":4318,"聲":4319,"聴":4320,"聶":4321,"職":4322,"聽":4323,"聿":4324,"肃":4325,"肅":4326,"肇":4327,"肉":4328,"肋":4329,"肌":4330,"肖":4331,"肠":4332,"股":4333,"肢":4334,"肥":4335,"育":4336,"肺":4337,"胆":4338,"背":4339,"胎":4340,"胖":4341,"胜":4342,"胞":4343,"胡":4344,"胧":4345,"胸":4346,"能":4347,"脂":4348,"脇":4349,"脈":4350,"脉":4351,"脊":4352,"脑":4353,"脚":4354,"脫":4355,"脳":4356,"腕":4357,"腦":4358,"腩":4359,"腰":4360,"腳":4361,"腸":4362,"腹":4363,"腺":4364,"腾":4365,"腿":4366,"膀":4367,"膩":4368,"膳":4369,"膽":4370,"臂":4371,"臍":4372,"臓":4373,"臣":4374,"臧":4375,"臨":4376,"自":4377,"臭":4378,"至":4379,"致":4380,"臺":4381,"臻":4382,"臼":4383,"舂":4384,"與":4385,"興":4386,"舊":4387,"舌":4388,"舍":4389,"舎":4390,"舒":4391,"舗":4392,"舘":4393,"舛":4394,"舜":4395,"舞":4396,"舟":4397,"舩":4398,"航":4399,"舫":4400,"般":4401,"舰":4402,"船":4403,"舺":4404,"艇":4405,"艋":4406,"艦":4407,"艮":4408,"良":4409,"色":4410,"艳":4411,"艷":4412,"艺":4413,"艾":4414,"节":4415,"芃":4416,"芎":4417,"芒":4418,"芙":4419,"芝":4420,"芥":4421,"芦":4422,"芬":4423,"芭":4424,"花":4425,"芳":4426,"芷":4427,"芸":4428,"芹":4429,"芽":4430,"苋":4431,"苍":4432,"苏":4433,"苑":4434,"苓":4435,"苔":4436,"苕":4437,"苗":4438,"苞":4439,"苟":4440,"若":4441,"苦":4442,"英":4443,"苹":4444,"苺":4445,"茂":4446,"范":4447,"茄":4448,"茅":4449,"茉":4450,"茎":4451,"茗":4452,"茜":4453,"茨":4454,"茱":4455,"茵":4456,"茶":4457,"茹":4458,"荃":4459,"荆":4460,"草":4461,"荊":4462,"荒":4463,"荔":4464,"荘":4465,"荡":4466,"荣":4467,"荦":4468,"荫":4469,"药":4470,"荷":4471,"荻":4472,"莆":4473,"莉":4474,"莊":4475,"莎":4476,"莓":4477,"莖":4478,"莘":4479,"莞":4480,"莢":4481,"莧":4482,"莫":4483,"莱":4484,"莲":4485,"莸":4486,"莼":4487,"莽":4488,"菀":4489,"菁":4490,"菅":4491,"菊":4492,"菌":4493,"菎":4494,"菓":4495,"菘":4496,"菜":4497,"菠":4498,"菩":4499,"菫":4500,"華":4501,"菰":4502,"菱":4503,"菲":4504,"菴":4505,"菸":4506,"萃":4507,"萄":4508,"萊":4509,"萌":4510,"萍":4511,"营":4512,"萧":4513,"萨":4514,"萩":4515,"萬":4516,"萱":4517,"萸":4518,"萼":4519,"落":4520,"葆":4521,"葉":4522,"著":4523,"葛":4524,"葡":4525,"董":4526,"葦":4527,"葫":4528,"葬":4529,"葯":4530,"葵":4531,"蒂":4532,"蒋":4533,"蒔":4534,"蒙":4535,"蒟":4536,"蒲":4537,"蒸":4538,"蒻":4539,"蒼":4540,"蒿":4541,"蓀":4542,"蓄":4543,"蓉":4544,"蓝":4545,"蓬":4546,"蓮":4547,"蓼":4548,"蔗":4549,"蔚":4550,"蔡":4551,"蔣":4552,"蔥":4553,"蔦":4554,"蔬":4555,"蔭":4556,"蔴":4557,"蔵":4558,"蔷":4559,"蕉":4560,"蕗":4561,"蕙":4562,"蕨":4563,"蕩":4564,"蕭":4565,"蕾":4566,"薄":4567,"薇":4568,"薈":4569,"薊":4570,"薔":4571,"薙":4572,"薛":4573,"薤":4574,"薩":4575,"薫":4576,"薬":4577,"薮":4578,"薰":4579,"藍":4580,"藏":4581,"藝":4582,"藤":4583,"藥":4584,"藩":4585,"藪":4586,"藻":4587,"蘆":4588,"蘇":4589,"蘋":4590,"蘭":4591,"蘿":4592,"虎":4593,"虐":4594,"處":4595,"虚":4596,"虛":4597,"虞":4598,"號":4599,"虫":4600,"虹":4601,"蚀":4602,"蚁":4603,"蚊":4604,"蚌":4605,"蚺":4606,"蛇":4607,"蛉":4608,"蛋":4609,"蛍":4610,"蛙":4611,"蛛":4612,"蛟":4613,"蛮":4614,"蛺":4615,"蛾":4616,"蜀":4617,"蜂":4618,"蜆":4619,"蜘":4620,"蜜":4621,"蜥":4622,"蜷":4623,"蜻":4624,"蝉":4625,"蝕":4626,"蝦":4627,"蝪":4628,"蝴":4629,"蝶":4630,"螂":4631,"融":4632,"螢":4633,"螳":4634,"螺":4635,"蟇":4636,"蟲":4637,"蟷":4638,"蟹":4639,"蟻":4640,"蠡":4641,"蠻":4642,"血":4643,"衆":4644,"行":4645,"術":4646,"街":4647,"衛":4648,"衝":4649,"衞":4650,"衡":4651,"衣":4652,"表":4653,"衰":4654,"袁":4655,"袋":4656,"被":4657,"袴":4658,"裁":4659,"裂":4660,"装":4661,"裏":4662,"裔":4663,"裕":4664,"裘":4665,"補":4666,"裝":4667,"裡":4668,"裳":4669,"裵":4670,"裸":4671,"製":4672,"裾":4673,"複":4674,"褲":4675,"褻":4676,"襖":4677,"襟":4678,"襪":4679,"襲":4680,"西":4681,"要":4682,"覇":4683,"見":4684,"規":4685,"視":4686,"覚":4687,"覧":4688,"親":4689,"覲":4690,"観":4691,"覺":4692,"覽":4693,"觀":4694,"见":4695,"观":4696,"视":4697,"览":4698,"觉":4699,"觐":4700,"角":4701,"解":4702,"言":4703,"訂":4704,"計":4705,"訊":4706,"討":4707,"訓":4708,"訕":4709,"託":4710,"記":4711,"訪":4712,"設":4713,"許":4714,"訳":4715,"訴":4716,"訶":4717,"診":4718,"証":4719,"詒":4720,"評":4721,"詞":4722,"詠":4723,"試":4724,"詩":4725,"詮":4726,"話":4727,"該":4728,"詳":4729,"詹":4730,"誂":4731,"誌":4732,"誕":4733,"誘":4734,"語":4735,"誠":4736,"誡":4737,"誤":4738,"說":4739,"説":4740,"読":4741,"誰":4742,"課":4743,"調":4744,"談":4745,"諏":4746,"論":4747,"諫":4748,"諭":4749,"諸":4750,"諾":4751,"謀":4752,"謎":4753,"謙":4754,"講":4755,"謝":4756,"謨":4757,"證":4758,"譚":4759,"譜":4760,"警":4761,"譯":4762,"議":4763,"譲":4764,"護":4765,"讃":4766,"變":4767,"讐":4768,"讓":4769,"讚":4770,"计":4771,"让":4772,"训":4773,"议":4774,"讯":4775,"记":4776,"许":4777,"论":4778,"设":4779,"证":4780,"诃":4781,"评":4782,"识":4783,"词":4784,"诗":4785,"诚":4786,"话":4787,"该":4788,"语":4789,"说":4790,"诺":4791,"读":4792,"谊":4793,"谋":4794,"谢":4795,"谣":4796,"谦":4797,"谭":4798,"谱":4799,"谷":4800,"豆":4801,"豊":4802,"豐":4803,"豚":4804,"象":4805,"豪":4806,"豫":4807,"豬":4808,"豹":4809,"貓":4810,"貝":4811,"貞":4812,"負":4813,"財":4814,"貢":4815,"貧":4816,"貨":4817,"貫":4818,"責":4819,"貳":4820,"貴":4821,"買":4822,"費":4823,"貼":4824,"貽":4825,"貿":4826,"賀":4827,"資":4828,"賈":4829,"賊":4830,"賓":4831,"賜":4832,"賞":4833,"賡":4834,"賢":4835,"賣":4836,"質":4837,"賭":4838,"賴":4839,"購":4840,"賽":4841,"贊":4842,"贖":4843,"贛":4844,"贝":4845,"贞":4846,"贡":4847,"财":4848,"责":4849,"贤":4850,"货":4851,"质":4852,"购":4853,"贯":4854,"贵":4855,"贷":4856,"贸":4857,"费":4858,"贺":4859,"贻":4860,"贾":4861,"资":4862,"赌":4863,"赛":4864,"赞":4865,"赡":4866,"赣":4867,"赤":4868,"赫":4869,"走":4870,"赵":4871,"起":4872,"超":4873,"越":4874,"趙":4875,"趨":4876,"足":4877,"跃":4878,"跆":4879,"跑":4880,"跖":4881,"距":4882,"跟":4883,"跡":4884,"路":4885,"跳":4886,"践":4887,"踊":4888,"踏":4889,"踐":4890,"踪":4891,"踯":4892,"蹄":4893,"蹈":4894,"蹊":4895,"蹟":4896,"躁":4897,"躅":4898,"躍":4899,"身":4900,"車":4901,"軌":4902,"軍":4903,"軒":4904,"軟":4905,"転":4906,"軫":4907,"軽":4908,"軾":4909,"載":4910,"輌":4911,"輔":4912,"輕":4913,"輝":4914,"輩":4915,"輪":4916,"輯":4917,"輸":4918,"轉":4919,"轎":4920,"车":4921,"轨":4922,"轩":4923,"转":4924,"轮":4925,"软":4926,"轰":4927,"轻":4928,"载":4929,"轿":4930,"辅":4931,"辉":4932,"辑":4933,"辙":4934,"辛":4935,"辞":4936,"辣":4937,"辦":4938,"辭":4939,"辰":4940,"辱":4941,"農":4942,"辺":4943,"辻":4944,"込":4945,"辽":4946,"达":4947,"迁":4948,"迅":4949,"过":4950,"迎":4951,"运":4952,"近":4953,"返":4954,"还":4955,"这":4956,"进":4957,"远":4958,"连":4959,"迟":4960,"迦":4961,"迪":4962,"迫":4963,"述":4964,"迴":4965,"迷":4966,"追":4967,"退":4968,"送":4969,"逃":4970,"逆":4971,"选":4972,"透":4973,"逐":4974,"途":4975,"這":4976,"通":4977,"逝":4978,"速":4979,"造":4980,"逢":4981,"連":4982,"逮":4983,"週":4984,"進":4985,"逵":4986,"逸":4987,"逼":4988,"遁":4989,"遂":4990,"遇":4991,"遊":4992,"運":4993,"遍":4994,"過":4995,"遏":4996,"道":4997,"達":4998,"違":4999,"遗":5000,"遙":5001,"遜":5002,"遞":5003,"遠":5004,"遣":5005,"遥":5006,"遭":5007,"遮":5008,"遲":5009,"遵":5010,"選":5011,"遺":5012,"遼":5013,"還":5014,"邉":5015,"邊":5016,"邑":5017,"邓":5018,"邛":5019,"邢":5020,"那":5021,"邦":5022,"邨":5023,"邪":5024,"邮":5025,"邯":5026,"邰":5027,"邱":5028,"邵":5029,"邹":5030,"郁":5031,"郎":5032,"郑":5033,"郝":5034,"郞":5035,"郡":5036,"部":5037,"郭":5038,"郵":5039,"郷":5040,"郸":5041,"都":5042,"鄂":5043,"鄉":5044,"鄒":5045,"鄞":5046,"鄧":5047,"鄭":5048,"鄱":5049,"鄲":5050,"酉":5051,"配":5052,"酒":5053,"酔":5054,"酵":5055,"酷":5056,"酸":5057,"醇":5058,"醉":5059,"醒":5060,"醫":5061,"醸":5062,"采":5063,"釈":5064,"釋":5065,"里":5066,"重":5067,"野":5068,"量":5069,"金":5070,"釗":5071,"釜":5072,"針":5073,"釣":5074,"釧":5075,"鈊":5076,"鈕":5077,"鈞":5078,"鈴":5079,"鈺":5080,"鉄":5081,"鉛":5082,"鉤":5083,"鉬":5084,"鉱":5085,"鉴":5086,"銀":5087,"銃":5088,"銅":5089,"銓":5090,"銖":5091,"銘":5092,"銚":5093,"銭":5094,"銳":5095,"銶":5096,"銹":5097,"鋒":5098,"鋤":5099,"鋸":5100,"鋼":5101,"錄":5102,"錆":5103,"錘":5104,"錢":5105,"錦":5106,"錫":5107,"錬":5108,"録":5109,"鍊":5110,"鍋":5111,"鍔":5112,"鍙":5113,"鍛":5114,"鍵":5115,"鍼":5116,"鍾":5117,"鎌":5118,"鎔":5119,"鎖":5120,"鎗":5121,"鎧":5122,"鎬":5123,"鎭":5124,"鎮":5125,"鏇":5126,"鏗":5127,"鏘":5128,"鏞":5129,"鏡":5130,"鏵":5131,"鐘":5132,"鐵":5133,"鐶":5134,"鑄":5135,"鑌":5136,"鑑":5137,"鑒":5138,"鑓":5139,"鑫":5140,"针":5141,"钓":5142,"钝":5143,"钟":5144,"钢":5145,"钦":5146,"钧":5147,"钩":5148,"钱":5149,"钼":5150,"铁":5151,"铃":5152,"铜":5153,"铭":5154,"银":5155,"铸":5156,"锁":5157,"锅":5158,"锈":5159,"锋":5160,"锐":5161,"错":5162,"锡":5163,"锤":5164,"锥":5165,"锦":5166,"锷":5167,"锺":5168,"镇":5169,"镜":5170,"镞":5171,"镰":5172,"镶":5173,"長":5174,"长":5175,"門":5176,"閃":5177,"閆":5178,"閉":5179,"開":5180,"閎":5181,"閑":5182,"閒":5183,"間":5184,"閔":5185,"閘":5186,"関":5187,"閣":5188,"閥":5189,"閬":5190,"閻":5191,"闇":5192,"闊":5193,"闖":5194,"闘":5195,"關":5196,"门":5197,"闫":5198,"闳":5199,"间":5200,"闹":5201,"闽":5202,"阁":5203,"阆":5204,"阎":5205,"阔":5206,"阜":5207,"队":5208,"阡":5209,"阪":5210,"阮":5211,"防":5212,"阳":5213,"阴":5214,"阿":5215,"陀":5216,"附":5217,"际":5218,"陆":5219,"陈":5220,"陌":5221,"降":5222,"限":5223,"陕":5224,"陝":5225,"陞":5226,"院":5227,"陣":5228,"险":5229,"陪":5230,"陰":5231,"陳":5232,"陵":5233,"陶":5234,"陸":5235,"険":5236,"陽":5237,"隅":5238,"隆":5239,"隈":5240,"隊":5241,"隋":5242,"階":5243,"随":5244,"隐":5245,"隔":5246,"際":5247,"隠":5248,"隣":5249,"隧":5250,"險":5251,"隱":5252,"隶":5253,"隷":5254,"隸":5255,"隼":5256,"雀":5257,"雁":5258,"雄":5259,"雅":5260,"集":5261,"雉":5262,"雌":5263,"雍":5264,"雑":5265,"雕":5266,"雙":5267,"雜":5268,"雞":5269,"離":5270,"難":5271,"雨":5272,"雪":5273,"雫":5274,"雯":5275,"雰":5276,"雲":5277,"零":5278,"雷":5279,"電":5280,"霄":5281,"霆":5282,"震":5283,"霊":5284,"霍":5285,"霏":5286,"霖":5287,"霜":5288,"霞":5289,"霧":5290,"霰":5291,"露":5292,"霸":5293,"霹":5294,"靂":5295,"靄":5296,"靈":5297,"靑":5298,"青":5299,"靓":5300,"靖":5301,"静":5302,"靚":5303,"靜":5304,"非":5305,"靡":5306,"面":5307,"革":5308,"靳":5309,"靼":5310,"鞍":5311,"鞜":5312,"鞭":5313,"韃":5314,"韋":5315,"韑":5316,"韓":5317,"韜":5318,"韞":5319,"韦":5320,"韩":5321,"韫":5322,"韬":5323,"音":5324,"韶":5325,"響":5326,"頂":5327,"頃":5328,"項":5329,"順":5330,"須":5331,"頌":5332,"預":5333,"頑":5334,"頒":5335,"頓":5336,"領":5337,"頤":5338,"頭":5339,"頼":5340,"題":5341,"額":5342,"顏":5343,"顔":5344,"顕":5345,"願":5346,"類":5347,"顧":5348,"顯":5349,"顶":5350,"项":5351,"顺":5352,"须":5353,"顾":5354,"顿":5355,"颂":5356,"预":5357,"领":5358,"颐":5359,"频":5360,"颖":5361,"颗":5362,"题":5363,"颜":5364,"额":5365,"風":5366,"风":5367,"飛":5368,"飞":5369,"食":5370,"飯":5371,"飴":5372,"飼":5373,"飽":5374,"飾":5375,"餅":5376,"養":5377,"餐":5378,"餓":5379,"餘":5380,"館":5381,"饅":5382,"饒":5383,"饗":5384,"饭":5385,"饰":5386,"饶":5387,"馆":5388,"馒":5389,"首":5390,"馗":5391,"香":5392,"馥":5393,"馨":5394,"馬":5395,"馮":5396,"馳":5397,"駁":5398,"駄":5399,"駅":5400,"駆":5401,"駐":5402,"駒":5403,"駕":5404,"駟":5405,"駿":5406,"騎":5407,"騏":5408,"騒":5409,"験":5410,"騨":5411,"騫":5412,"騰":5413,"騷":5414,"驃":5415,"驅":5416,"驊":5417,"驗":5418,"驚":5419,"驤":5420,"驥":5421,"马":5422,"驰":5423,"驷":5424,"驹":5425,"驼":5426,"驿":5427,"骄":5428,"骆":5429,"验":5430,"骏":5431,"骑":5432,"骞":5433,"骨":5434,"骸":5435,"體":5436,"高":5437,"髪":5438,"鬥":5439,"鬧":5440,"鬪":5441,"鬱":5442,"鬼":5443,"魁":5444,"魂":5445,"魅":5446,"魍":5447,"魎":5448,"魏":5449,"魔":5450,"魚":5451,"魯":5452,"鮎":5453,"鮑":5454,"鮒":5455,"鮨":5456,"鮫":5457,"鮮":5458,"鯉":5459,"鯤":5460,"鯨":5461,"鰲":5462,"鱀":5463,"鱷":5464,"鱼":5465,"鲁":5466,"鲨":5467,"鲲":5468,"鳓":5469,"鳖":5470,"鳞":5471,"鳥":5472,"鳩":5473,"鳳":5474,"鳴":5475,"鴉":5476,"鴛":5477,"鴦":5478,"鴨":5479,"鴻":5480,"鵑":5481,"鵜":5482,"鵞":5483,"鵡":5484,"鵬":5485,"鵰":5486,"鵲":5487,"鶏":5488,"鶯":5489,"鶴":5490,"鷲":5491,"鷹":5492,"鷺":5493,"鸟":5494,"鸡":5495,"鸣":5496,"鸥":5497,"鸦":5498,"鸭":5499,"鸮":5500,"鸽":5501,"鸿":5502,"鹃":5503,"鹅":5504,"鹏":5505,"鹘":5506,"鹤":5507,"鹰":5508,"鹹":5509,"鹽":5510,"鹿":5511,"麋":5512,"麒":5513,"麓":5514,"麗":5515,"麟":5516,"麥":5517,"麦":5518,"麵":5519,"麻":5520,"麼":5521,"麿":5522,"黃":5523,"黄":5524,"黎":5525,"黑":5526,"黒":5527,"黔":5528,"默":5529,"黙":5530,"點":5531,"鼇":5532,"鼎":5533,"鼓":5534,"鼠":5535,"鼻":5536,"齊":5537,"齋":5538,"齐":5539,"齡":5540,"龄":5541,"龍":5542,"龐":5543,"龑":5544,"龔":5545,"龙":5546,"龚":5547,"龜":5548,"龟":5549,"龢":5550,"ꜜ":5551,"ꭹ":5552,"ꭿ":5553,"ꮃ":5554,"ꮄ":5555,"ꮎ":5556,"ꮕ":5557,"ꮚ":5558,"ꮜ":5559,"ꮟ":5560,"ꮤ":5561,"ꮳ":5562,"ꮷ":5563,"ꮹ":5564,"ꯂ":5565,"ꯇ":5566,"ꯛ":5567,"﨑":5568,"ﬁ":5569,"ﭕ":5570,"ﭙ":5571,"ﮈ":5572,"ﮌ":5573,"ﮔ":5574,"ﮕ":5575,"ﮨ":5576,"ﮭ":5577,"ﷲ":5578,"ﺁ":5579,"ﺍ":5580,"ﺎ":5581,"ﺐ":5582,"ﺑ":5583,"ﺒ":5584,"ﺓ":5585,"ﺕ":5586,"ﺘ":5587,"ﺝ":5588,"ﺟ":5589,"ﺠ":5590,"ﺤ":5591,"ﺩ":5592,"ﺪ":5593,"ﺭ":5594,"ﺮ":5595,"ﺱ":5596,"ﺳ":5597,"ﺴ":5598,"ﺸ":5599,"ﺻ":5600,"ﺿ":5601,"ﻌ":5602,"ﻏ":5603,"ﻐ":5604,"ﻓ":5605,"ﻖ":5606,"ﻗ":5607,"ﻛ":5608,"ﻞ":5609,"ﻟ":5610,"ﻤ":5611,"ﻥ":5612,"ﻧ":5613,"ﻨ":5614,"ﻩ":5615,"ﻫ":5616,"ﻬ":5617,"ﻭ":5618,"ﻮ":5619,"ﻲ":5620,"ﻳ":5621,"ﻴ":5622,"﻿":5623,"！":5624,"＃":5625,"＆":5626,"（":5627,"）":5628,"＋":5629,"，":5630,"－":5631,"．":5632,"／":5633,"０":5634,"１":5635,"２":5636,"３":5637,"４":5638,"５":5639,"６":5640,"７":5641,"８":5642,"９":5643,"：":5644,"；":5645,"＜":5646,"＝":5647,"＞":5648,"ａ":5649,"ｃ":5650,"ｄ":5651,"ｅ":5652,"ｆ":5653,"ｇ":5654,"ｉ":5655,"ｋ":5656,"ｎ":5657,"ｏ":5658,"ｐ":5659,"ｑ":5660,"ｒ":5661,"ｓ":5662,"ｔ":5663,"ｖ":5664,"ｘ":5665,"ｚ":5666,"｜":5667,"～":5668,"｢":5669,"｣":5670,"･":5671,"ｺ":5672,"ﾋ":5673,"ﾟ":5674,"￠":5675,"￥":5676,"�":5677,"𢄂":5678,"##a":5679,"##n":5680,"##u":5681,"##i":5682,"##m":5683,"##r":5684,"##o":5685,"##b":5686,"##c":5687,"##e":5688,"##s":5689,"##t":5690,"##l":5691,"##v":5692,"##k":5693,"##p":5694,"##h":5695,"##y":5696,"##र":5697,"##स":5698,"##म":5699,"##ह":5700,"##ɔ":5701,"##ˈ":5702,"##ʂ":5703,"##ɨ":5704,"##g":5705,"##ン":5706,"##フ":5707,"##ェ":5708,"##リ":5709,"##ア":5710,"##慶":5711,"##第":5712,"##一":5713,"##中":5714,"##學":5715,"##w":5716,"##j":5717,"##z":5718,"##0":5719,"##q":5720,"##f":5721,"##ɕ":5722,"##6":5723,"##1":5724,"##°":5725,"##и":5726,"##р":5727,"##ћ":5728,"##d":5729,"##н":5730,"##ж":5731,"##е":5732,"##а":5733,"##х":5734,"##б":5735,"##к":5736,"##о":5737,"##в":5738,"##ч":5739,"##ʝ":5740,"##ɛ":5741,"##و":5742,"##ا":5743,"##ز":5744,"##‎":5745,"##x":5746,"##金":5747,"##坊":5748,"##م":5749,"##ن":5750,"##ɲ":5751,"##ー":5752,"##サ":5753,"##ʑ":5754,"##ː":5755,"##ի":5756,"##ջ":5757,"##ա":5758,"##գ":5759,"##յ":5760,"##ն":5761,"##ե":5762,"##ռ":5763,"##ր":5764,"##旺":5765,"##集":5766,"##團":5767,"##有":5768,"##限":5769,"##公":5770,"##司":5771,"##8":5772,"##7":5773,"##3":5774,"##4":5775,"##2":5776,"##ł":5777,"##ɪ":5778,"##ʃ":5779,"##恭":5780,"##9":5781,"##ュ":5782,"##5":5783,"##し":5784,"##は":5785,"##な":5786,"##刑":5787,"##事":5788,"##タ":5789,"##チ":5790,"##ハ":5791,"##ナ":5792,"##ي":5793,"##æ":5794,"##ظ":5795,"##ل":5796,"##چ":5797,"##ص":5798,"##ر":5799,"##ش":5800,"##ه":5801,"##ル":5802,"##シ":5803,"##ス":5804,"##ø":5805,"##明":5806,"##人":5807,"##間":5808,"##ت":5809,"##ق":5810,"##د":5811,"##江":5812,"##大":5813,"##醫":5814,"##院":5815,"##క":5816,"##ట":5817,"##ด":5818,"##เ":5819,"##ข":5820,"##ต":5821,"##т":5822,"##л":5823,"##с":5824,"##ы":5825,"##住":5826,"##ک":5827,"##ہ":5828,"##ی":5829,"##ı":5830,"##川":5831,"##г":5832,"##ү":5833,"##э":5834,"##也":5835,"##ك":5836,"##子":5837,"##φ":5838,"##ε":5839,"##ν":5840,"##δ":5841,"##ο":5842,"##η":5843,"##д":5844,"##ع":5845,"##鹏":5846,"##ب":5847,"##ح":5848,"##カ":5849,"##ニ":5850,"##у":5851,"##щ":5852,"##瑞":5853,"##雪":5854,"##原":5855,"##ɡ":5856,"##ण":5857,"##خ":5858,"##ມ":5859,"##ະ":5860,"##ລ":5861,"##м":5862,"##ɐ":5863,"##α":5864,"##τ":5865,"##ς":5866,"##զ":5867,"##մ":5868,"##վ":5869,"##է":5870,"##պ":5871,"##ศ":5872,"##ส":5873,"##ว":5874,"##ร":5875,"##ณ":5876,"##↑":5877,"##ન":5878,"##લ":5879,"##國":5880,"##傳":5881,"##ག":5882,"##ے":5883,"##仙":5884,"##太":5885,"##郎":5886,"##济":5887,"##医":5888,"##科":5889,"##学":5890,"##ശ":5891,"##വ":5892,"##ദ":5893,"##സ":5894,"##പ":5895,"##ര":5896,"##ة":5897,"##і":5898,"##北":5899,"##市":5900,"##立":5901,"##同":5902,"##高":5903,"##级":5904,"##س":5905,"##湖":5906,"##ژ":5907,"##ə":5908,"##洋":5909,"##コ":5910,"##ム":5911,"##工":5912,"##業":5913,"##株":5914,"##式":5915,"##会":5916,"##社":5917,"##ა":5918,"##რ":5919,"##გ":5920,"##ვ":5921,"##ე":5922,"##ლ":5923,"##შ":5924,"##ი":5925,"##ʐ":5926,"##京":5927,"##イ":5928,"##ツ":5929,"##ს":5930,"##თ":5931,"##ნ":5932,"##ʻ":5933,"##鴻":5934,"##出":5935,"##版":5936,"##股":5937,"##份":5938,"##ى":5939,"##ɾ":5940,"##ɑ":5941,"##ݣ":5942,"##ρ":5943,"##μ":5944,"##θ":5945,"##υ":5946,"##耀":5947,"##栋":5948,"##λ":5949,"##ι":5950,"##κ":5951,"##ʲ":5952,"##ц":5953,"##я":5954,"##ர":5955,"##ம":5956,"##ப":5957,"##த":5958,"##ன":5959,"##林":5960,"##云":5961,"##丽":5962,"##ャ":5963,"##ホ":5964,"##ヒ":5965,"##テ":5966,"##オ":5967,"##ɴ":5968,"##य":5969,"##ラ":5970,"##ッ":5971,"##と":5972,"##女":5973,"##朴":5974,"##方":5975,"##ω":5976,"##π":5977,"##غ":5978,"##ਕ":5979,"##ਦ":5980,"##ਰ":5981,"##田":5982,"##ß":5983,"##代":5984,"##會":5985,"##要":5986,"##প":5987,"##ত":5988,"##ব":5989,"##ল":5990,"##备":5991,"##三":5992,"##素":5993,"##毅":5994,"##谷":5995,"##ш":5996,"##名":5997,"##校":5998,"##ɜ":5999,"##ᅵ":6000,"##ᆷ":6001,"##ᄋ":6002,"##ᅡ":6003,"##ᅧ":6004,"##ᆼ":6005,"##ষ":6006,"##ট":6007,"##ഴ":6008,"##ത":6009,"##ച":6010,"##ഛ":6011,"##ൻ":6012,"##竹":6013,"##文":6014,"##化":6015,"##局":6016,"##影":6017,"##像":6018,"##博":6019,"##物":6020,"##館":6021,"##ま":6022,"##ゆ":6023,"##ら":6024,"##ਤ":6025,"##ద":6026,"##園":6027,"##の":6028,"##ヘ":6029,"##ト":6030,"##渡":6031,"##り":6032,"##鳥":6033,"##ʰ":6034,"##ʔ":6035,"##گ":6036,"##葡":6037,"##萄":6038,"##酒":6039,"##木":6040,"##ん":6041,"##度":6042,"##庐":6043,"##古":6044,"##屋":6045,"##交":6046,"##通":6047,"##形":6048,"##ട":6049,"##യ":6050,"##з":6051,"##秀":6052,"##演":6053,"##唱":6054,"##棟":6055,"##ජ":6056,"##ස":6057,"##හ":6058,"##க":6059,"##平":6060,"##嶺":6061,"##桜":6062,"##ф":6063,"##ض":6064,"##使":6065,"##た":6066,"##こ":6067,"##ج":6068,"##坂":6069,"##ð":6070,"##部":6071,"##利":6072,"##直":6073,"##ɵ":6074,"##柄":6075,"##山":6076,"##英":6077,"##霞":6078,"##တ":6079,"##က":6080,"##日":6081,"##報":6082,"##く":6083,"##ち":6084,"##п":6085,"##穆":6086,"##ء":6087,"##在":6088,"##波":6089,"##导":6090,"##ᅮ":6091,"##ᄉ":6092,"##ᅥ":6093,"##ᄀ":6094,"##ᅩ":6095,"##ᄃ":6096,"##ᅳ":6097,"##ᄒ":6098,"##ᆨ":6099,"##ᅭ":6100,"##ط":6101,"##你":6102,"##縱":6103,"##壞":6104,"##閑":6105,"##倶":6106,"##楽":6107,"##拔":6108,"##島":6109,"##ᅢ":6110,"##起":6111,"##等":6112,"##ǀ":6113,"##ɫ":6114,"##理":6115,"##ف":6116,"##絆":6117,"##љ":6118,"##ւ":6119,"##ո":6120,"##β":6121,"##寫":6122,"##圓":6123,"##教":6124,"##寺":6125,"##口":6126,"##野":6127,"##來":6128,"##際":6129,"##प":6130,"##ה":6131,"##ן":6132,"##道":6133,"##世":6134,"##之":6135,"##介":6136,"##ј":6137,"##ג":6138,"##י":6139,"##ひ":6140,"##る":6141,"##空":6142,"##ଦ":6143,"##ବ":6144,"##的":6145,"##ь":6146,"##ל":6147,"##מ":6148,"##ध":6149,"##湾":6150,"##論":6151,"##ന":6152,"##組":6153,"##ᅦ":6154,"##ᆫ":6155,"##ᄐ":6156,"##ᄆ":6157,"##ல":6158,"##ச":6159,"##ங":6160,"##ᆯ":6161,"##ᄅ":6162,"##妙":6163,"##真":6164,"##ந":6165,"##მ":6166,"##ზ":6167,"##あ":6168,"##い":6169,"##話":6170,"##め":6171,"##戦":6172,"##史":6173,"##ウ":6174,"##年":6175,"##超":6176,"##ই":6177,"##হ":6178,"##ন":6179,"##σ":6180,"##ɒ":6181,"##心":6182,"##ʁ":6183,"##ಪ":6184,"##ರ":6185,"##ಚ":6186,"##ತ":6187,"##ะ":6188,"##重":6189,"##−":6190,"##γ":6191,"##故":6192,"##న":6193,"##వ":6194,"##డ":6195,"##藤":6196,"##お":6197,"##永":6198,"##慧":6199,"##型":6200,"##駆":6201,"##逐":6202,"##艦":6203,"##岡":6204,"##新":6205,"##安":6206,"##ʌ":6207,"##时":6208,"##无":6209,"##俩":6210,"##松":6211,"##ሾ":6212,"##መ":6213,"##ŋ":6214,"##ﾟ":6215,"##ｺ":6216,"##क":6217,"##ष":6218,"##त":6219,"##थ":6220,"##沢":6221,"##پ":6222,"##本":6223,"##白":6224,"##加":6225,"##咲":6226,"##福":6227,"##哲":6228,"##琴":6229,"##紀":6230,"##香":6231,"##港":6232,"##店":6233,"##も":6234,"##っ":6235,"##て":6236,"##士":6237,"##施":6238,"##乐":6239,"##厦":6240,"##戸":6241,"##丸":6242,"##キ":6243,"##恋":6244,"##如":6245,"##镶":6246,"##嵌":6247,"##浦":6248,"##东":6249,"##陆":6250,"##家":6251,"##嘴":6252,"##融":6253,"##贸":6254,"##易":6255,"##区":6256,"##颗":6257,"##璀":6258,"##璨":6259,"##珠":6260,"##雨":6261,"##丹":6262,"##ղ":6263,"##դ":6264,"##者":6265,"##里":6266,"##נ":6267,"##信":6268,"##電":6269,"##鉄":6270,"##愛":6271,"##ʊ":6272,"##国":6273,"##ग":6274,"##マ":6275,"##ழ":6276,"##ள":6277,"##逸":6278,"##帆":6279,"##ʋ":6280,"##生":6281,"##½":6282,"##ស":6283,"##រ":6284,"##ម":6285,"##ល":6286,"##ប":6287,"##ត":6288,"##ក":6289,"##ព":6290,"##ជ":6291,"##力":6292,"##ю":6293,"##客":6294,"##片":6295,"##莉":6296,"##花":6297,"##开":6298,"##正":6299,"##盛":6300,"##闘":6301,"##星":6302,"##矢":6303,"##际":6304,"##关":6305,"##系":6306,"##ᄁ":6307,"##ᆾ":6308,"##न":6309,"##き":6310,"##ற":6311,"##வ":6312,"##果":6313,"##ぬ":6314,"##夢":6315,"##ಸ":6316,"##ಕ":6317,"##ಲ":6318,"##ұ":6319,"##ल":6320,"##す":6321,"##み":6322,"##輸":6323,"##送":6324,"##ξ":6325,"##ய":6326,"##ட":6327,"##策":6328,"##基":6329,"##二":6330,"##đ":6331,"##ו":6332,"##မ":6333,"##န":6334,"##လ":6335,"##豪":6336,"##や":6337,"##ふ":6338,"##ᄌ":6339,"##ᅴ":6340,"##童":6341,"##戰":6342,"##到":6343,"##底":6344,"##志":6345,"##জ":6346,"##য":6347,"##ক":6348,"##佳":6349,"##容":6350,"##南":6351,"##技":6352,"##律":6353,"##ท":6354,"##梅":6355,"##乃":6356,"##व":6357,"##越":6358,"##地":6359,"##ク":6360,"##ロ":6361,"##ᆺ":6362,"##ᄇ":6363,"##ᅪ":6364,"##ష":6365,"##త":6366,"##ర":6367,"##య":6368,"##セ":6369,"##♥":6370,"##华":6371,"##კ":6372,"##ძ":6373,"##ရ":6374,"##雲":6375,"##五":6376,"##樵":6377,"##ર":6378,"##ך":6379,"##忍":6380,"##う":6381,"##ಡ":6382,"##泳":6383,"##連":6384,"##期":6385,"##貨":6386,"##廣":6387,"##場":6388,"##頭":6389,"##逆":6390,"##手":6391,"##斬":6392,"##吾":6393,"##聿":6394,"##修":6395,"##念":6396,"##凌":6397,"##漆":6398,"##ᅲ":6399,"##ይ":6400,"##ቅ":6401,"##由":6402,"##依":6403,"##χ":6404,"##ケ":6405,"##井":6406,"##雅":6407,"##蔭":6408,"##揚":6409,"##×":6410,"##և":6411,"##կ":6412,"##鷹":6413,"##晚":6414,"##ˤ":6415,"##จ":6416,"##ญ":6417,"##建":6418,"##筑":6419,"##ज":6420,"##द":6421,"##ম":6422,"##ফ":6423,"##ড":6424,"##百":6425,"##巡":6426,"##ಯ":6427,"##妮":6428,"##津":6429,"##艺":6430,"##美":6431,"##术":6432,"##职":6433,"##业":6434,"##™":6435,"##訊":6436,"##進":6437,"##柱":6438,"##ო":6439,"##ח":6440,"##น":6441,"##ब":6442,"##作":6443,"##室":6444,"##悪":6445,"##魔":6446,"##ө":6447,"##ʒ":6448,"##โ":6449,"##ห":6450,"##ォ":6451,"##苗":6452,"##県":6453,"##´":6454,"##摩":6455,"##ħ":6456,"##浩":6457,"##师":6458,"##团":6459,"##务":6460,"##所":6461,"##鞜":6462,"##ɣ":6463,"##沙":6464,"##陽":6465,"##徒":6466,"##議":6467,"##録":6468,"##助":6469,"##西":6470,"##銅":6471,"##蕾":6472,"##馨":6473,"##神":6474,"##寮":6475,"##語":6476,"##қ":6477,"##祖":6478,"##模":6479,"##œ":6480,"##毛":6481,"##右":6482,"##走":6483,"##ˌ":6484,"##行":6485,"##ല":6486,"##龙":6487,"##都":6488,"##报":6489,"##村":6490,"##廉":6491,"##є":6492,"##ත":6493,"##ර":6494,"##ङ":6495,"##和":6496,"##宇":6497,"##﻿":6498,"##奉":6499,"##春":6500,"##レ":6501,"##ಮ":6502,"##શ":6503,"##વ":6504,"##燊":6505,"##ʀ":6506,"##荷":6507,"##樓":6508,"##ᅨ":6509,"##ᄈ":6510,"##欣":6511,"##ट":6512,"##ख":6513,"##ణ":6514,"##ವ":6515,"##風":6516,"##音":6517,"##ყ":6518,"##翼":6519,"##广":6520,"##播":6521,"##电":6522,"##视":6523,"##宮":6524,"##岸":6525,"##ล":6526,"##า":6527,"##这":6528,"##十":6529,"##枝":6530,"##民":6531,"##堂":6532,"##菩":6533,"##薩":6534,"##峠":6535,"##淳":6536,"##久":6537,"##秋":6538,"##銀":6539,"##河":6540,"##成":6541,"##功":6542,"##内":6543,"##岳":6544,"##ထ":6545,"##င":6546,"##竜":6547,"##決":6548,"##ง":6549,"##ย":6550,"##ฤ":6551,"##ธ":6552,"##ճ":6553,"##光":6554,"##च":6555,"##長":6556,"##協":6557,"##奏":6558,"##曲":6559,"##徵":6560,"##祥":6561,"##天":6562,"##ప":6563,"##ల":6564,"##տ":6565,"##፻":6566,"##亞":6567,"##保":6568,"##仔":6569,"##え":6570,"##つ":6571,"##よ":6572,"##ョ":6573,"##図":6574,"##మ":6575,"##ミ":6576,"##ᑦ":6577,"##ᑎ":6578,"##ᓄ":6579,"##ᐊ":6580,"##ᕐ":6581,"##ਸ":6582,"##泓":6583,"##ˠ":6584,"##బ":6585,"##హ":6586,"##淵":6587,"##谋":6588,"##上":6589,"##男":6590,"##彥":6591,"##卿":6592,"##อ":6593,"##群":6594,"##³":6595,"##溪":6596,"##廟":6597,"##拉":6598,"##র":6599,"##马":6600,"##政":6601,"##珉":6602,"##横":6603,"##浜":6604,"##称":6605,"##þ":6606,"##黒":6607,"##下":6608,"##着":6609,"##洁":6610,"##仪":6611,"##ხ":6612,"##წ":6613,"##ม":6614,"##ܝ":6615,"##ܬ":6616,"##ܡ":6617,"##昌":6618,"##袋":6619,"##詩":6620,"##時":6621,"##完":6622,"##吉":6623,"##ภ":6624,"##対":6625,"##覚":6626,"##醒":6627,"##☆":6628,"##ಳ":6629,"##ದ":6630,"##ನ":6631,"##損":6632,"##友":6633,"##খ":6634,"##ৰ":6635,"##腳":6636,"##威":6637,"##震":6638,"##獄":6639,"##門":6640,"##స":6641,"##ほ":6642,"##合":6643,"##杜":6644,"##鹃":6645,"##石":6646,"##彼":6647,"##崎":6648,"##铭":6649,"##א":6650,"##ר":6651,"##గ":6652,"##ק":6653,"##甲":6654,"##塾":6655,"##ᄂ":6656,"##ץ":6657,"##ᄑ":6658,"##短":6659,"##便":6660,"##機":6661,"##動":6662,"##記":6663,"##メ":6664,"##弾":6665,"##豆":6666,"##杉":6667,"##佑":6668,"##暉":6669,"##ם":6670,"##樹":6671,"##エ":6672,"##関":6673,"##東":6674,"##鶴":6675,"##賀":6676,"##ט":6677,"##ड":6678,"##联":6679,"##航":6680,"##毫":6681,"##我":6682,"##海":6683,"##展":6684,"##览":6685,"##ζ":6686,"##ฬ":6687,"##ก":6688,"##ช":6689,"##უ":6690,"##ള":6691,"##车":6692,"##災":6693,"##資":6694,"##料":6695,"##仁":6696,"##ళ":6697,"##శ":6698,"##鷲":6699,"##杰":6700,"##灣":6701,"##鐵":6702,"##聯":6703,"##車":6704,"##霸":6705,"##王":6706,"##豐":6707,"##繰":6708,"##れ":6709,"##ڍ":6710,"##藝":6711,"##语":6712,"##約":6713,"##翰":6714,"##證":6715,"##券":6716,"##ש":6717,"##丁":6718,"##州":6719,"##帝":6720,"##襲":6721,"##劇":6722,"##˧":6723,"##˩":6724,"##華":6725,"##阴":6726,"##楼":6727,"##延":6728,"##屏":6729,"##卫":6730,"##植":6731,"##机":6732,"##械":6733,"##救":6734,"##主":6735,"##さ":6736,"##貫":6737,"##小":6738,"##僧":6739,"##實":6740,"##條":6741,"##ဘ":6742,"##婦":6743,"##善":6744,"##哉":6745,"##ල":6746,"##ಣ":6747,"##寿":6748,"##险":6749,"##ъ":6750,"##葉":6751,"##情":6752,"##উ":6753,"##爾":6754,"##漢":6755,"##專":6756,"##育":6757,"##消":6758,"##失":6759,"##经":6760,"##营":6761,"##管":6762,"##硕":6763,"##鷺":6764,"##死":6765,"##体":6766,"##宅":6767,"##配":6768,"##њ":6769,"##族":6770,"##დ":6771,"##ᄎ":6772,"##º":6773,"##ث":6774,"##わ":6775,"##ɯ":6776,"##亭":6777,"##聞":6778,"##添":6779,"##ფ":6780,"##ბ":6781,"##企":6782,"##控":6783,"##法":6784,"##少":6785,"##か":6786,"##鸥":6787,"##師":6788,"##ண":6789,"##ᆸ":6790,"##黙":6791,"##隊":6792,"##季":6793,"##節":6794,"##臺":6795,"##閣":6796,"##秘":6797,"##密":6798,"##外":6799,"##ʿ":6800,"##祐":6801,"##せ":6802,"##製":6803,"##薬":6804,"##ტ":6805,"##夫":6806,"##佐":6807,"##ណ":6808,"##দ":6809,"##ಟ":6810,"##達":6811,"##兵":6812,"##ᅬ":6813,"##龍":6814,"##帽":6815,"##旅":6816,"##ळ":6817,"##奈":6818,"##に":6819,"##ゃ":6820,"##献":6821,"##ధ":6822,"##宏":6823,"##洲":6824,"##尔":6825,"##斯":6826,"##侨":6827,"##ව":6828,"##න":6829,"##塔":6830,"##坡":6831,"##徳":6832,"##ပ":6833,"##﨑":6834,"##থ":6835,"##八":6836,"##歳":6837,"##♭":6838,"##ར":6839,"##輪":6840,"##ʎ":6841,"##そ":6842,"##食":6843,"##品":6844,"##批":6845,"##發":6846,"##ノ":6847,"##ィ":6848,"##榜":6849,"##程":6850,"##范":6851,"##次":6852,"##喜":6853,"##多":6854,"##达":6855,"##典":6856,"##全":6857,"##錄":6858,"##⅓":6859,"##ฒ":6860,"##钧":6861,"##剑":6862,"##স":6863,"##斗":6864,"##宜":6865,"##蘭":6866,"##級":6867,"##ය":6868,"##解":6869,"##禁":6870,"##թ":6871,"##頂":6872,"##殺":6873,"##勝":6874,"##श":6875,"##吟":6876,"##尾":6877,"##早":6878,"##廈":6879,"##路":6880,"##總":6881,"##צ":6882,"##啤":6883,"##廠":6884,"##祿":6885,"##布":6886,"##戲":6887,"##ਗ":6888,"##歩":6889,"##ཏ":6890,"##ན":6891,"##朗":6892,"##ჯ":6893,"##豊":6894,"##自":6895,"##織":6896,"##柴":6897,"##ʼ":6898,"##ঝ":6899,"##派":6900,"##ٽ":6901,"##ぃ":6902,"##ฟ":6903,"##ヶ":6904,"##映":6905,"##画":6906,"##楚":6907,"##汐":6908,"##蝉":6909,"##ۍ":6910,"##定":6911,"##軍":6912,"##飾":6913,"##ɹ":6914,"##火":6915,"##ذ":6916,"##宽":6917,"##卓":6918,"##睿":6919,"##莱":6920,"##弟":6921,"##婆":6922,"##寶":6923,"##证":6924,"##宝":6925,"##ಜ":6926,"##砂":6927,"##梨":6928,"##邑":6929,"##団":6930,"##ᄏ":6931,"##貞":6932,"##ە":6933,"##ဒ":6934,"##ਮ":6935,"##ע":6936,"##ב":6937,"##健":6938,"##ঙ":6939,"##গ":6940,"##頃":6941,"##ס":6942,"##龑":6943,"##ד":6944,"##滨":6945,"##尼":6946,"##モ":6947,"##€":6948,"##雷":6949,"##潜":6950,"##ソ":6951,"##月":6952,"##夏":6953,"##元":6954,"##○":6955,"##罪":6956,"##瀬":6957,"##衣":6958,"##כ":6959,"##輔":6960,"##狼":6961,"##伝":6962,"##説":6963,"##发":6964,"##银":6965,"##刊":6966,"##経":6967,"##済":6968,"##ക":6969,"##流":6970,"##淚":6971,"##戯":6972,"##放":6973,"##瞳":6974,"##萍":6975,"##ஸ":6976,"##乱":6977,"##防":6978,"##護":6979,"##ゅ":6980,"##嵩":6981,"##澄":6982,"##居":6983,"##ɝ":6984,"##દ":6985,"##嘉":6986,"##鮮":6987,"##ワ":6988,"##雰":6989,"##囲":6990,"##気":6991,"##ⲣ":6992,"##ⲉ":6993,"##ⲙ":6994,"##醉":6995,"##拳":6996,"##ょ":6997,"##姫":6998,"##潮":6999,"##孩":7000,"##菁":7001,"##²":7002,"##仓":7003,"##ኩ":7004,"##ሪ":7005,"##ያ":7006,"##聖":7007,"##惕":7008,"##伯":7009,"##瓊":7010,"##孫":7011,"##ք":7012,"##ս":7013,"##ᠥ":7014,"##ᠪ":7015,"##ᠰ":7016,"##ᠦ":7017,"##ᠭ":7018,"##ᠯ":7019,"##ٹ":7020,"##榮":7021,"##阳":7022,"##鹰":7023,"##റ":7024,"##汉":7025,"##የ":7026,"##ዝ":7027,"##ጊ":7028,"##叡":7029,"##ป":7030,"##ซ":7031,"##ᇁ":7032,"##妻":7033,"##富":7034,"##ሰ":7035,"##ፕ":7036,"##ህ":7037,"##ڑ":7038,"##强":7039,"##ค":7040,"##¨":7041,"##լ":7042,"##希":7043,"##盟":7044,"##仿":7045,"##ถ":7046,"##ں":7047,"##習":7048,"##ฉ":7049,"##楨":7050,"##ބ":7051,"##ދ":7052,"##ލ":7053,"##‌":7054,"##蝶":7055,"##嫁":7056,"##１":7057,"##ର":7058,"##进":7059,"##才":7060,"##幗":7061,"##錫":7062,"##丰":7063,"##ஜ":7064,"##件":7065,"##ಹ":7066,"##無":7067,"##改":7068,"##革":7069,"##陸":7070,"##শ":7071,"##চ":7072,"##郷":7073,"##ꜜ":7074,"##应":7075,"##伴":7076,"##ʏ":7077,"##ց":7078,"##ۋ":7079,"##桦":7080,"##辰":7081,"##ਖ":7082,"##ਪ":7083,"##庭":7084,"##ਹ":7085,"##ਬ":7086,"##ಠ":7087,"##ও":7088,"##赤":7089,"##ठ":7090,"##ಷ":7091,"##詞":7092,"##斌":7093,"##ಗ":7094,"##ђ":7095,"##萬":7096,"##鵬":7097,"##泉":7098,"##然":7099,"##官":7100,"##邉":7101,"##青":7102,"##唐":7103,"##簡":7104,"##ਵ":7105,"##芸":7106,"##玎":7107,"##苑":7108,"##ײ":7109,"##岩":7110,"##闳":7111,"##ғ":7112,"##ҙ":7113,"##を":7114,"##冒":7115,"##険":7116,"##昱":7117,"##半":7118,"##導":7119,"##體":7120,"##号":7121,"##李":7122,"##賢":7123,"##堯":7124,"##◆":7125,"##煌":7126,"##羅":7127,"##万":7128,"##象":7129,"##眼":7130,"##ำ":7131,"##พ":7132,"##ˑ":7133,"##သ":7134,"##開":7135,"##商":7136,"##ഥ":7137,"##‍":7138,"##玉":7139,"##猫":7140,"##照":7141,"##珂":7142,"##言":7143,"##武":7144,"##探":7145,"##偵":7146,"##構":7147,"##造":7148,"##嫌":7149,"##暨":7150,"##康":7151,"##計":7152,"##ൽ":7153,"##恩":7154,"##昆":7155,"##虫":7156,"##ஷ":7157,"##怪":7158,"##獣":7159,"##靚":7160,"##瑄":7161,"##静":7162,"##娴":7163,"##沟":7164,"##镇":7165,"##色":7166,"##ネ":7167,"##療":7168,"##術":7169,"##歌":7170,"##魎":7171,"##螺":7172,"##旋":7173,"##兆":7174,"##ක":7175,"##征":7176,"##喰":7177,"##ɤ":7178,"##ᅣ":7179,"##峽":7180,"##舎":7181,"##吹":7182,"##ろ":7183,"##հ":7184,"##復":7185,"##活":7186,"##振":7187,"##辱":7188,"##儀":7189,"##唯":7190,"##બ":7191,"##傑":7192,"##ද":7193,"##ධ":7194,"##ඝ":7195,"##ෂ":7196,"##絶":7197,"##望":7198,"##苓":7199,"##‏":7200,"##ভ":7201,"##駄":7202,"##翔":7203,"##ˀ":7204,"##倍":7205,"##劍":7206,"##鑫":7207,"##狩":7208,"##分":7209,"##穴":7210,"##血":7211,"##鬼":7212,"##肖":7213,"##ང":7214,"##幸":7215,"##ヤ":7216,"##胎":7217,"##水":7218,"##義":7219,"##範":7220,"##霧":7221,"##చ":7222,"##治":7223,"##輝":7224,"##硝":7225,"##曽":7226,"##駒":7227,"##財":7228,"##甸":7229,"##乍":7230,"##农":7231,"##ӏ":7232,"##ґ":7233,"##俊":7234,"##待":7235,"##摯":7236,"##စ":7237,"##軒":7238,"##提":7239,"##尕":7240,"##城":7241,"##迪":7242,"##埠":7243,"##智":7244,"##峰":7245,"##ർ":7246,"##ᶞ":7247,"##ହ":7248,"##奴":7249,"##隸":7250,"##勲":7251,"##章":7252,"##們":7253,"##不":7254,"##伟":7255,"##扁":7256,"##柏":7257,"##愚":7258,"##ભ":7259,"##ગ":7260,"##受":7261,"##馬":7262,"##鎬":7263,"##剛":7264,"##破":7265,"##紫":7266,"##觀":7267,"##頤":7268,"##臻":7269,"##宙":7270,"##責":7271,"##任":7272,"##ǃ":7273,"##פ":7274,"##梓":7275,"##良":7276,"##悦":7277,"##ڪ":7278,"##ڀ":7279,"##町":7280,"##ད":7281,"##研":7282,"##究":7283,"##幻":7284,"##樂":7285,"##台":7286,"##ァ":7287,"##ণ":7288,"##倉":7289,"##മ":7290,"##船":7291,"##蒻":7292,"##警":7293,"##察":7294,"##ᑐ":7295,"##ᔾ":7296,"##ᔨ":7297,"##ᖃ":7298,"##ᒌ":7299,"##ᖏ":7300,"##兄":7301,"##บ":7302,"##刻":7303,"##騎":7304,"##莫":7305,"##印":7306,"##違":7307,"##～":7308,"##央":7309,"##财":7310,"##圭":7311,"##芥":7312,"##個":7313,"##經":7314,"##亮":7315,"##隆":7316,"##汽":7317,"##飼":7318,"##漁":7319,"##稅":7320,"##意":7321,"##ɦ":7322,"##ษ":7323,"##ฐ":7324,"##知":7325,"##ז":7326,"##绣":7327,"##琛":7328,"##枭":7329,"##ʹ":7330,"##始":7331,"##ᆻ":7332,"##ᆭ":7333,"##ਡ":7334,"##ණ":7335,"##宗":7336,"##緯":7337,"##宪":7338,"##魁":7339,"##¥":7340,"##ת":7341,"##狂":7342,"##赛":7343,"##薇":7344,"##草":7345,"##ә":7346,"##魚":7347,"##斉":7348,"##敷":7349,"##設":7350,"##房":7351,"##们":7352,"##眉":7353,"##寇":7354,"##树":7355,"##ـ":7356,"##ਲ":7357,"##郞":7358,"##綱":7359,"##棒":7360,"##®":7361,"##秩":7362,"##父":7363,"##礼":7364,"##泰":7365,"##勇":7366,"##枕":7367,"##弥":7368,"##呼":7369,"##豚":7370,"##扬":7371,"##菓":7372,"##雙":7373,"##颜":7374,"##侃":7375,"##々":7376,"##郵":7377,"##歴":7378,"##ວ":7379,"##ຫ":7380,"##າ":7381,"##ນ":7382,"##ʱ":7383,"##来":7384,"##憶":7385,"##ଷ":7386,"##ୟ":7387,"##କ":7388,"##球":7389,"##駅":7390,"##ങ":7391,"##ᑭ":7392,"##ᕝ":7393,"##ᕕ":7394,"##ᒃ":7395,"##谊":7396,"##˙":7397,"##游":7398,"##擊":7399,"##姉":7400,"##妹":7401,"##声":7402,"##ခ":7403,"##艇":7404,"##奇":7405,"##杄":7406,"##命":7407,"##鉱":7408,"##晶":7409,"##变":7410,"##洞":7411,"##へ":7412,"##け":7413,"##绒":7414,"##苞":7415,"##ಶ":7416,"##ഷ":7417,"##ഞ":7418,"##भ":7419,"##焯":7420,"##価":7421,"##後":7422,"##閉":7423,"##忠":7424,"##霜":7425,"##冠":7426,"##ৎ":7427,"##繡":7428,"##界":7429,"##服":7430,"##務":7431,"##僕":7432,"##終":7433,"##回":7434,"##ҧ":7435,"##引":7436,"##ৱ":7437,"##書":7438,"##撃":7439,"##夜":7440,"##ണ":7441,"##軽":7442,"##燕":7443,"##染":7444,"##想":7445,"##虎":7446,"##崃":7447,"##德":7448,"##発":7449,"##前":7450,"##藏":7451,"##չ":7452,"##蔵":7453,"##步":7454,"##芳":7455,"##縣":7456,"##舘":7457,"##ֆ":7458,"##附":7459,"##属":7460,"##宰":7461,"##陰":7462,"##謀":7463,"##嵋":7464,"##嵐":7465,"##崇":7466,"##黄":7467,"##抱":7468,"##萼":7469,"##ধ":7470,"##嬌":7471,"##與":7472,"##府":7473,"##奕":7474,"##贤":7475,"##雄":7476,"##眞":7477,"##昇":7478,"##貿":7479,"##۷":7480,"##ʷ":7481,"##職":7482,"##资":7483,"##量":7484,"##厚":7485,"##入":7486,"##様":7487,"##邪":7488,"##ժ":7489,"##箭":7490,"##廬":7491,"##見":7492,"##朝":7493,"##可":7494,"##桢":7495,"##急":7496,"##飞":7497,"##":7498,"##ዎ":7499,"##ድ":7500,"##ሮ":7501,"##ስ":7502,"##အ":7503,"##捧":7504,"##別":7505,"##冈":7506,"##精":7507,"##桑":7508,"##訪":7509,"##ᅯ":7510,"##聽":7511,"##­":7512,"##⎯":7513,"##蒲":7514,"##ሀ":7515,"##ሙ":7516,"##油":7517,"##総":7518,"##寅":7519,"##軫":7520,"##则":7521,"##ɟ":7522,"##悼":7523,"##乳":7524,"##樑":7525,"##君":7526,"##乙":7527,"##街":7528,"##写":7529,"##字":7530,"##媒":7531,"##乏":7532,"##能":7533,"##娘":7534,"##森":7535,"##尻":7536,"##洽":7537,"##沖":7538,"##当":7539,"##千":7540,"##场":7541,"##జ":7542,"##陶":7543,"##衛":7544,"##弘":7545,"##禄":7546,"##晓":7547,"##冬":7548,"##蔷":7549,"##烈":7550,"##孝":7551,"##แ":7552,"##ᄄ":7553,"##ᅱ":7554,"##ჩ":7555,"##宿":7556,"##扭":7557,"##紋":7558,"##忘":7559,"##记":7560,"##了":7561,"##去":7562,"##很":7563,"##蘇":7564,"##省":7565,"##椰":7566,"##線":7567,"##視":7568,"##យ":7569,"##វ":7570,"##ક":7571,"##ષ":7572,"##ણ":7573,"##現":7574,"##淀":7575,"##臣":7576,"##羽":7577,"##好":7578,"##ھ":7579,"##ڈ":7580,"##未":7581,"##暮":7582,"##ｘ":7583,"##０":7584,"##姿":7585,"##★":7586,"##零":7587,"##ପ":7588,"##ନ":7589,"##暦":7590,"##奥":7591,"##銃":7592,"##曉":7593,"##旭":7594,"##鎮":7595,"##區":7596,"##ঠ":7597,"##բ":7598,"##ը":7599,"##環":7600,"##ゥ":7601,"##♂":7602,"##藥":7603,"##೦":7604,"##ည":7605,"##ၿ":7606,"##ဖ":7607,"##温":7608,"##評":7609,"##貢":7610,"##涼":7611,"##鑑":7612,"##昏":7613,"##腕":7614,"##玲":7615,"##蔚":7616,"##笑":7617,"##壁":7618,"##辉":7619,"##禅":7620,"##格":7621,"##梁":7622,"##药":7623,"##շ":7624,"##隈":7625,"##淑":7626,"##敏":7627,"##菘":7628,"##ܒ":7629,"##ܘ":7630,"##ܪ":7631,"##綏":7632,"##ဏ":7633,"##岛":7634,"##圳":7635,"##菴":7636,"##ɥ":7637,"##曳":7638,"##厝":7639,"##購":7640,"##阡":7641,"##蕙":7642,"##純":7643,"##冢":7644,"##剣":7645,"##刀":7646,"##鍛":7647,"##冶":7648,"##彦":7649,"##灵":7650,"##栄":7651,"##創":7652,"##強":7653,"##ծ":7654,"##守":7655,"##嗣":7656,"##常":7657,"##昂":7658,"##奮":7659,"##濱":7660,"##裕":7661,"##٦":7662,"##ಬ":7663,"##最":7664,"##条":7665,"##舞":7666,"##培":7667,"##ۈ":7668,"##嶋":7669,"##库":7670,"##娜":7671,"##џ":7672,"##嬅":7673,"##ਥ":7674,"##碑":7675,"##掃":7676,"##特":7677,"##फ":7678,"##む":7679,"##魂":7680,"##ई":7681,"##維":7682,"##先":7683,"##ພ":7684,"##ດ":7685,"##ອ":7686,"##聲":7687,"##བ":7688,"##独":7689,"##沼":7690,"##楠":7691,"##清":7692,"##嬢":7693,"##炮":7694,"##ⲏ":7695,"##ⲑ":7696,"##ⲟ":7697,"##ⲩ":7698,"##ⲁ":7699,"##ⲃ":7700,"##牛":7701,"##測":7702,"##說":7703,"##凱":7704,"##蒂":7705,"##盈":7706,"##蓄":7707,"##池":7708,"##穎":7709,"##顏":7710,"##打":7711,"##缨":7712,"##爸":7713,"##ප":7714,"##ʉ":7715,"##偉":7716,"##ქ":7717,"##殤":7718,"##葬":7719,"##列":7720,"##獅":7721,"##稔":7722,"##ѣ":7723,"##庆":7724,"##關":7725,"##ᖅ":7726,"##ᓱ":7727,"##ᓗ":7728,"##ᔪ":7729,"##今":7730,"##壽":7731,"##險":7732,"##飛":7733,"##鏘":7734,"##３":7735,"##私":7736,"##束":7737,"##茨":7738,"##姆":7739,"##巳":7740,"##琼":7741,"##紅":7742,"##罗":7743,"##པ":7744,"##ې":7745,"##橋":7746,"##孟":7747,"##致":7748,"##暎":7749,"##恵":7750,"##若":7751,"##瑟":7752,"##舒":7753,"##鲁":7754,"##ଶ":7755,"##ᐳ":7756,"##ᕇ":7757,"##ᓴ":7758,"##宁":7759,"##腿":7760,"##扇":7761,"##梦":7762,"##穂":7763,"##孜":7764,"##克":7765,"##佛":7766,"##复":7767,"##比":7768,"##ヨ":7769,"##兒":7770,"##參":7771,"##麓":7772,"##為":7773,"##拙":7774,"##圍":7775,"##脳":7776,"##選":7777,"##択":7778,"##肢":7779,"##広":7780,"##雀":7781,"##浪":7782,"##続":7783,"##倫":7784,"##ฎ":7785,"##継":7786,"##迴":7787,"##ฮ":7788,"##周":7789,"##ଳ":7790,"##屍":7791,"##翻":7792,"##沛":7793,"##寧":7794,"##敎":7795,"##蕗":7796,"##藍":7797,"##数":7798,"##码":7799,"##គ":7800,"##ង":7801,"##ሕ":7802,"##ር":7803,"##ஞ":7804,"##齊":7805,"##霆":7806,"##付":7807,"##納":7808,"##玟":7809,"##營":7810,"##霊":7811,"##綫":7812,"##丙":7813,"##犬":7814,"##ዊ":7815,"##ት":7816,"##菅":7817,"##钢":7818,"##ᑕ":7819,"##蓉":7820,"##థ":7821,"##祝":7822,"##検":7823,"##ٱ":7824,"##腾":7825,"##幡":7826,"##亜":7827,"##給":7828,"##ᄍ":7829,"##ဟ":7830,"##ဗ":7831,"##ဓ":7832,"##խ":7833,"##鋒":7834,"##个":7835,"##尚":7836,"##ᓂ":7837,"##ᑫ":7838,"##ᐃ":7839,"##ᐧ":7840,"##ᐣ":7841,"##ⅱ":7842,"##棘":7843,"##誌":7844,"##诗":7845,"##源":7846,"##貴":7847,"##＝":7848,"##菜":7849,"##腰":7850,"##针":7851,"##ܚ":7852,"##ܐ":7853,"##深":7854,"##樫":7855,"##岭":7856,"##思":7857,"##談":7858,"##親":7859,"##指":7860,"##規":7861,"##墩":7862,"##喪":7863,"##ʧ":7864,"##滙":7865,"##勤":7866,"##益":7867,"##運":7868,"##転":7869,"##萌":7870,"##ए":7871,"##璿":7872,"##ʈ":7873,"##构":7874,"##汗":7875,"##门":7876,"##感":7877,"##鯨":7878,"##阜":7879,"##処":7880,"##收":7881,"##存":7882,"##凯":7883,"##惑":7884,"##爭":7885,"##鬥":7886,"##౦":7887,"##看":7888,"##陵":7889,"##面":7890,"##督":7891,"##譚":7892,"##麗":7893,"##芬":7894,"##述":7895,"##沉":7896,"##怡":7897,"##⋅":7898,"##九":7899,"##速":7900,"##ձ":7901,"##禹":7902,"##麟":7903,"##查":7904,"##饭":7905,"##փ":7906,"##ሴ":7907,"##ፍ":7908,"##曦":7909,"##妤":7910,"##蟷":7911,"##螂":7912,"##监":7913,"##葵":7914,"##灯":7915,"##蒔":7916,"##艷":7917,"##揺":7918,"##蜜":7919,"##舟":7920,"##种":7921,"##ಎ":7922,"##珍":7923,"##ਣ":7924,"##麻":7925,"##辣":7926,"##烫":7927,"##峯":7928,"##窝":7929,"##堡":7930,"##鐘":7931,"##戀":7932,"##焕":7933,"##敗":7934,"##菱":7935,"##域":7936,"##塚":7937,"##根":7938,"##ۃ":7939,"##风":7940,"##猛":7941,"##澤":7942,"##斎":7943,"##漫":7944,"##讯":7945,"##⁄":7946,"##ڌ":7947,"##夕":7948,"##阿":7949,"##双":7950,"##ｏ":7951,"##ｎ":7952,"##ａ":7953,"##ｉ":7954,"##ｅ":7955,"##相":7956,"##ね":7957,"##靈":7958,"##桂":7959,"##帳":7960,"##紙":7961,"##锦":7962,"##碩":7963,"##疆":7964,"##弔":7965,"##ᇂ":7966,"##架":7967,"##බ":7968,"##ග":7969,"##ම":7970,"##ｖ":7971,"##①":7972,"##ဝ":7973,"##箱":7974,"##亚":7975,"##凉":7976,"##钟":7977,"##磨":7978,"##ڠ":7979,"##蚀":7980,"##鄲":7981,"##ڵ":7982,"##蛉":7983,"##權":7984,"##老":7985,"##捉":7986,"##鳖":7987,"##ለ":7988,"##ክ":7989,"##አ":7990,"##萱":7991,"##迷":7992,"##爺":7993,"##岐":7994,"##蛇":7995,"##婕":7996,"##祈":7997,"##٠":7998,"##誠":7999,"##玩":8000,"##予":8001,"##邦":8002,"##భ":8003,"##刘":8004,"##锅":8005,"##ც":8006,"##標":8007,"##肇":8008,"##陳":8009,"##実":8010,"##魅":8011,"##覽":8012,"##狗":8013,"##統":8014,"##制":8015,"##燃":8016,"##尽":8017,"##燮":8018,"##ജ":8019,"##潔":8020,"##ⅴ":8021,"##再":8022,"##为":8023,"##他":8024,"##泪":8025,"##ഡ":8026,"##ଣ":8027,"##ሲ":8028,"##〇":8029,"##瓲":8030,"##観":8031,"##设":8032,"##假":8033,"##菊":8034,"##扮":8035,"##ੜ":8036,"##驗":8037,"##侵":8038,"##略":8039,"##网":8040,"##连":8041,"##畜":8042,"##崖":8043,"##幌":8044,"##ඩ":8045,"##霄":8046,"##垣":8047,"##肺":8048,"##興":8049,"##瓦":8050,"##塌":8051,"##遊":8052,"##ঞ":8053,"##禮":8054,"##濤":8055,"##凝":8056,"##敬":8057,"##騰":8058,"##座":8059,"##ঘ":8060,"##求":8061,"##過":8062,"##得":8063,"##快":8064,"##槟":8065,"##凡":8066,"##օ":8067,"##養":8068,"##丘":8069,"##阪":8070,"##操":8071,"##侯":8072,"##栾":8073,"##钼":8074,"##装":8075,"##眠":8076,"##熱":8077,"##湘":8078,"##目":8079,"##庫":8080,"##欲":8081,"##鸦":8082,"##什":8083,"##么":8084,"##是":8085,"##黑":8086,"##肌":8087,"##召":8088,"##喚":8089,"##璃":8090,"##充":8091,"##還":8092,"##ฯ":8093,"##ន":8094,"##丝":8095,"##馥":8096,"##荔":8097,"##丛":8098,"##ဆ":8099,"##斐":8100,"##冰":8101,"##靂":8102,"##數":8103,"##碼":8104,"##尊":8105,"##扉":8106,"##兴":8107,"##吳":8108,"##军":8109,"##​":8110,"##須":8111,"##亨":8112,"##至":8113,"##敵":8114,"##⁶":8115,"##異":8116,"##उ":8117,"##渕":8118,"##挺":8119,"##۱":8120,"##۳":8121,"##澜":8122,"##ఘ":8123,"##ས":8124,"##翠":8125,"##棉":8126,"##刃":8127,"##牙":8128,"##倩":8129,"##ހ":8130,"##四":8131,"##卯":8132,"##優":8133,"##ɬ":8134,"##又":8135,"##慕":8136,"##曼":8137,"##铸":8138,"##♦":8139,"##仮":8140,"##垠":8141,"##ɽ":8142,"##ｚ":8143,"##暗":8144,"##将":8145,"##溝":8146,"##歯":8147,"##澳":8148,"##共":8149,"##ﻨ":8150,"##ﮕ":8151,"##ﺒ":8152,"##ﻞ":8153,"##帖":8154,"##離":8155,"##囁":8156,"##叶":8157,"##持":8158,"##贵":8159,"##瞰":8160,"##景":8161,"##彎":8162,"##淡":8163,"##熙":8164,"##柳":8165,"##玄":8166,"##藩":8167,"##巻":8168,"##苏":8169,"##濃":8170,"##ൾ":8171,"##ێ":8172,"##ఖ":8173,"##判":8174,"##实":8175,"##両":8176,"##झ":8177,"##器":8178,"##裁":8179,"##ତ":8180,"##ଯ":8181,"##头":8182,"##ړ":8183,"##兰":8184,"##ᓐ":8185,"##裝":8186,"##ମ":8187,"##ታ":8188,"##ቸ":8189,"##ው":8190,"##鏡":8191,"##扎":8192,"##怖":8193,"##衆":8194,"##澎":8195,"##仲":8196,"##ᓪ":8197,"##ᕈ":8198,"##ᐅ":8199,"##ᑉ":8200,"##幽":8201,"##碧":8202,"##棺":8203,"##索":8204,"##祺":8205,"##援":8206,"##ң":8207,"##आ":8208,"##畑":8209,"##ʕ":8210,"##驚":8211,"##જ":8212,"##嫂":8213,"##質":8214,"##網":8215,"##絡":8216,"##蓮":8217,"##ਈ":8218,"##唇":8219,"##儿":8220,"##ଲ":8221,"##ｄ":8222,"##吔":8223,"##ܣ":8224,"##ܟ":8225,"##ܢ":8226,"##ܕ":8227,"##慈":8228,"##પ":8229,"##番":8230,"##ไ":8231,"##稲":8232,"##琰":8233,"##足":8234,"##跡":8235,"##ਨ":8236,"##埻":8237,"##ସ":8238,"##ଟ":8239,"##僑":8240,"##孖":8241,"##難":8242,"##升":8243,"##首":8244,"##普":8245,"##及":8246,"##ਯ":8247,"##睡":8248,"##晟":8249,"##封":8250,"##鎖":8251,"##篮":8252,"##脇":8253,"##雞":8254,"##勳":8255,"##端":8256,"##褻":8257,"##獸":8258,"##觉":8259,"##令":8260,"##拍":8261,"##档":8262,"##土":8263,"##驅":8264,"##藻":8265,"##闖":8266,"##涯":8267,"##ञ":8268,"##ഹ":8269,"##ബ":8270,"##乗":8271,"##牧":8272,"##啟":8273,"##弛":8274,"##序":8275,"##慎":8276,"##贡":8277,"##统":8278,"##张":8279,"##专":8280,"##辑":8281,"##ʾ":8282,"##庵":8283,"##ɭ":8284,"##撮":8285,"##編":8286,"##˚":8287,"##猿":8288,"##瑠":8289,"##俚":8290,"##虹":8291,"##验":8292,"##词":8293,"##琦":8294,"##顶":8295,"##婉":8296,"##張":8297,"##輯":8298,"##ผ":8299,"##氏":8300,"##蓬":8301,"##抄":8302,"##而":8303,"##突":8304,"##ユ":8305,"##労":8306,"##ဂ":8307,"##宋":8308,"##鲨":8309,"##骄":8310,"##遥":8311,"##屬":8312,"##耆":8313,"##挙":8314,"##ශ":8315,"##喆":8316,"##岁":8317,"##ɻ":8318,"##璐":8319,"##邮":8320,"##总":8321,"##伊":8322,"##媛":8323,"##登":8324,"##呂":8325,"##塘":8326,"##瑰":8327,"##崗":8328,"##ɰ":8329,"##韓":8330,"##楓":8331,"##角":8332,"##変":8333,"##琬":8334,"##મ":8335,"##彬":8336,"##捜":8337,"##鈞":8338,"##ڱ":8339,"##玛":8340,"##党":8341,"##ཙ":8342,"##ใ":8343,"##ᆹ":8344,"##ଥ":8345,"##材":8346,"##貝":8347,"##杂":8348,"##俎":8349,"##吒":8350,"##鬧":8351,"##侠":8352,"##滩":8353,"##赌":8354,"##圣":8355,"##创":8356,"##办":8357,"##于":8358,"##伸":8359,"##殻":8360,"##ఠ":8361,"##ብ":8362,"##ረ":8363,"##ኢ":8364,"##ሱ":8365,"##ҭ":8366,"##瑪":8367,"##竇":8368,"##舍":8369,"##莊":8370,"##ഗ":8371,"##狐":8372,"##狸":8373,"##ል":8374,"##ደ":8375,"##詮":8376,"##脑":8377,"##用":8378,"##与":8379,"##戏":8380,"##向":8381,"##घ":8382,"##ଡ":8383,"##后":8384,"##旦":8385,"##朱":8386,"##儷":8387,"##荻":8388,"##燦":8389,"##鍙":8390,"##婚":8391,"##她":8392,"##姐":8393,"##ਟ":8394,"##那":8395,"##惹":8396,"##玻":8397,"##恒":8398,"##喫":8399,"##茶":8400,"##筏":8401,"##隶":8402,"##牟":8403,"##别":8404,"##篇":8405,"##剧":8406,"##庙":8407,"##切":8408,"##祠":8409,"##ਆ":8410,"##ማ":8411,"##賜":8412,"##პ":8413,"##©":8414,"##ނ":8415,"##ކ":8416,"##賊":8417,"##འ":8418,"##廚":8419,"##٢":8420,"##٩":8421,"##邱":8422,"##ओ":8423,"##投":8424,"##责":8425,"##初":8426,"##爆":8427,"##岱":8428,"##畅":8429,"##ᓅ":8430,"##囍":8431,"##亡":8432,"##ฏ":8433,"##妓":8434,"##螢":8435,"##邨":8436,"##ಥ":8437,"##匂":8438,"##頓":8439,"##幼":8440,"##錦":8441,"##霖":8442,"##衡":8443,"##众":8444,"##ಧ":8445,"##溫":8446,"##ဇ":8447,"##濟":8448,"##姓":8449,"##租":8450,"##誤":8451,"##性":8452,"##ᡳ":8453,"##ᠨ":8454,"##貽":8455,"##ۇ":8456,"##站":8457,"##ም":8458,"##賓":8459,"##俠":8460,"##ゝ":8461,"##降":8462,"##伏":8463,"##环":8464,"##糸":8465,"##靓":8466,"##涉":8467,"##ଚ":8468,"##鹿":8469,"##ఞ":8470,"##诺":8471,"##具":8472,"##產":8473,"##態":8474,"##ଝ":8475,"##¾":8476,"##幅":8477,"##僮":8478,"##错":8479,"##旻":8480,"##寰":8481,"##續":8482,"##移":8483,"##动":8484,"##慣":8485,"##蛙":8486,"##鳳":8487,"##末":8488,"##祉":8489,"##檬":8490,"##仇":8491,"##瑾":8492,"##玫":8493,"##晃":8494,"##¼":8495,"##叔":8496,"##休":8497,"##观":8498,"##析":8499,"##书":8500,"##昭":8501,"##莖":8502,"##荣":8503,"##ಫ":8504,"##亀":8505,"##余":8506,"##ˊ":8507,"##髪":8508,"##耕":8509,"##搞":8510,"##綸":8511,"##種":8512,"##ሊ":8513,"##幣":8514,"##位":8515,"##丈":8516,"##ɖ":8517,"##病":8518,"##櫃":8519,"##示":8520,"##課":8521,"##専":8522,"##米":8523,"##巣":8524,"##陀":8525,"##落":8526,"##汇":8527,"##驼":8528,"##獨":8529,"##號":8530,"##吸":8531,"##韶":8532,"##涵":8533,"##伍":8534,"##瑜":8535,"##暢":8536,"##溥":8537,"##綺":8538,"##囧":8539,"##途":8540,"##夷":8541,"##淘":8542,"##止":8543,"##ഖ":8544,"##満":8545,"##冲":8546,"##均":8547,"##ራ":8548,"##传":8549,"##處":8550,"##蜀":8551,"##མ":8552,"##衞":8553,"##痕":8554,"##窖":8555,"##ܠ":8556,"##儒":8557,"##坚":8558,"##盤":8559,"##奧":8560,"##爵":8561,"##息":8562,"##协":8563,"##陈":8564,"##纶":8565,"##紮":8566,"##追":8567,"##岚":8568,"##朋":8569,"##ਘ":8570,"##案":8571,"##ヌ":8572,"##舂":8573,"##六":8574,"##归":8575,"##ງ":8576,"##遺":8577,"##樸":8578,"##吻":8579,"##弗":8580,"##七":8581,"##滇":8582,"##疗":8583,"##逃":8584,"##犯":8585,"##冊":8586,"##琳":8587,"##萧":8588,"##─":8589,"##斜":8590,"##俺":8591,"##ɳ":8592,"##还":8593,"##拥":8594,"##柑":8595,"##څ":8596,"##ڢ":8597,"##ګ":8598,"##ڶ":8599,"##哈":8600,"##拿":8601,"##緒":8602,"##荒":8603,"##ҡ":8604,"##县":8605,"##攻":8606,"##蛮":8607,"##ୱ":8608,"##竟":8609,"##積":8610,"##辽":8611,"##舰":8612,"##憐":8613,"##储":8614,"##敦":8615,"##ᆮ":8616,"##杏":8617,"##２":8618,"##賭":8619,"##偽":8620,"##轉":8621,"##宾":8622,"##近":8623,"##װ":8624,"##ⁿ":8625,"##摺":8626,"##伦":8627,"##ޢ":8628,"##މ":8629,"##堅":8630,"##ઢ":8631,"##鈴":8632,"##帥":8633,"##篠":8634,"##撫":8635,"##ｓ":8636,"##ｐ":8637,"##ｒ":8638,"##ｔ":8639,"##争":8640,"##ढ":8641,"##巧":8642,"##ވ":8643,"##取":8644,"##練":8645,"##尋":8646,"##柯":8647,"##允":8648,"##簿":8649,"##頼":8650,"##遠":8651,"##鎧":8652,"##悚":8653,"##緣":8654,"##舊":8655,"##ਫ":8656,"##润":8657,"##轮":8658,"##蔡":8659,"##譜":8660,"##嘯":8661,"##芝":8662,"##暴":8663,"##榕":8664,"##爲":8665,"##孤":8666,"##ယ":8667,"##维":8668,"##鶯":8669,"##撞":8670,"##娼":8671,"##续":8672,"##麒":8673,"##洹":8674,"##這":8675,"##裡":8676,"##係":8677,"##禿":8678,"##点":8679,"##ဌ":8680,"##栎":8681,"##荘":8682,"##闇":8683,"##喘":8684,"##吁":8685,"##笹":8686,"##産":8687,"##鍾":8688,"##沂":8689,"##聡":8690,"##ऊ":8691,"##晖":8692,"##噂":8693,"##羊":8694,"##ત":8695,"##胜":8696,"##热":8697,"##带":8698,"##露":8699,"##埼":8700,"##透":8701,"##麼":8702,"##ទ":8703,"##ភ":8704,"##ញ":8705,"##噛":8706,"##裸":8707,"##囃":8708,"##ថ":8709,"##縄":8710,"##樽":8711,"##鳞":8712,"##應":8713,"##ਛ":8714,"##奀":8715,"##吞":8716,"##麵":8717,"##ҳ":8718,"##践":8719,"##ଜ":8720,"##寵":8721,"##惠":8722,"##逢":8723,"##胧":8724,"##ን":8725,"##ግ":8726,"##ተ":8727,"##ឌ":8728,"##氣":8729,"##→":8730,"##ᄊ":8731,"##矿":8732,"##矧":8733,"##稗":8734,"##卡":8735,"##ރ":8736,"##ޒ":8737,"##揮":8738,"##呱":8739,"##皇":8740,"##枫":8741,"##澈":8742,"##包":8743,"##刚":8744,"##ʍ":8745,"##朔":8746,"##ʦ":8747,"##ҵ":8748,"##断":8749,"##ﺠ":8750,"##ﻴ":8751,"##ﺐ":8752,"##頒":8753,"##獎":8754,"##碟":8755,"##危":8756,"##ﺮ":8757,"##ﺍ":8758,"##ﺝ":8759,"##嶽":8760,"##細":8761,"##犖":8762,"##珀":8763,"##ฑ":8764,"##母":8765,"##ꮄ":8766,"##ꭿ":8767,"##ꮜ":8768,"##ꮕ":8769,"##雫":8770,"##સ":8771,"##થ":8772,"##喧":8773,"##嘩":8774,"##状":8775,"##哨":8776,"##戒":8777,"##ⵉ":8778,"##ⵛ":8779,"##ⴽ":8780,"##ⴰ":8781,"##娃":8782,"##铁":8783,"##潟":8784,"##掌":8785,"##ଠ":8786,"##ય":8787,"##獵":8788,"##單":8789,"##繁":8790,"##殊":8791,"##慰":8792,"##没":8793,"##極":8794,"##馆":8795,"##£":8796,"##變":8797,"##檀":8798,"##罘":8799,"##ⲛ":8800,"##ϯ":8801,"##晴":8802,"##億":8803,"##桃":8804,"##黎":8805,"##酵":8806,"##ฆ":8807,"##占":8808,"##蹟":8809,"##އ":8810,"##ގ":8811,"##脉":8812,"##殖":8813,"##茂":8814,"##桥":8815,"##児":8816,"##纳":8817,"##ތ":8818,"##ޅ":8819,"##壬":8820,"##誕":8821,"##颖":8822,"##红":8823,"##ಭ":8824,"##约":8825,"##澀":8826,"##熟":8827,"##ઈ":8828,"##申":8829,"##左":8830,"##养":8831,"##ധ":8832,"##滿":8833,"##憲":8834,"##檎":8835,"##班":8836,"##莎":8837,"##ⲧ":8838,"##ʣ":8839,"##泽":8840,"##ට":8841,"##鍋":8842,"##ڻ":8843,"##怨":8844,"##茹":8845,"##˥":8846,"##气":8847,"##婷":8848,"##坝":8849,"##娛":8850,"##圩":8851,"##侍":8852,"##廷":8853,"##远":8854,"##ડ":8855,"##辺":8856,"##织":8857,"##珅":8858,"##漠":8859,"##爱":8860,"##ሩ":8861,"##运":8862,"##餓":8863,"##芃":8864,"##慢":8865,"##啼":8866,"##姻":8867,"##缘":8868,"##ሞ":8869,"##留":8870,"##ባ":8871,"##ሳ":8872,"##ኤ":8873,"##何":8874,"##壮":8875,"##餘":8876,"##譯":8877,"##ඳ":8878,"##彅":8879,"##徽":8880,"##築":8881,"##楂":8882,"##壺":8883,"##箒":8884,"##乎":8885,"##匡":8886,"##啲":8887,"##瑩":8888,"##跖":8889,"##覲":8890,"##審":8891,"##杨":8892,"##鵑":8893,"##訓":8894,"##曜":8895,"##絲":8896,"##鍔":8897,"##洪":8898,"##願":8899,"##峡":8900,"##壤":8901,"##互":8902,"##队":8903,"##训":8904,"##呪":8905,"##詠":8906,"##ច":8907,"##អ":8908,"##ហ":8909,"##壊":8910,"##妞":8911,"##粧":8912,"##叉":8913,"##珊":8914,"##靖":8915,"##絵":8916,"##ﻬ":8917,"##聰":8918,"##洙":8919,"##尙":8920,"##㎡":8921,"##銘":8922,"##對":8923,"##宫":8924,"##长":8925,"##泌":8926,"##瓶":8927,"##ҷ":8928,"##娇":8929,"##增":8930,"##楊":8931,"##柔":8932,"##氷":8933,"##微":8934,"##沒":8935,"##類":8936,"##鑄":8937,"##酷":8938,"##熊":8939,"##ሃ":8940,"##ነ":8941,"##坤":8942,"##焼":8943,"##肉":8944,"##蹈":8945,"##磔":8946,"##籍":8947,"##就":8948,"##读":8949,"##跆":8950,"##葯":8951,"##鼎":8952,"##ԥ":8953,"##迁":8954,"##इ":8955,"##ወ":8956,"##ቀ":8957,"##ஹ":8958,"##潤":8959,"##禧":8960,"##驤":8961,"##驹":8962,"##噴":8963,"##射":8964,"##薔":8965,"##凧":8966,"##載":8967,"##锁":8968,"##騏":8969,"##犹":8970,"##謙":8971,"##൪":8972,"##壱":8973,"##享":8974,"##盜":8975,"##笔":8976,"##鞍":8977,"##ڤ":8978,"##雯":8979,"##鑒":8980,"##軌":8981,"##郁":8982,"##□":8983,"##园":8984,"##崙":8985,"##惊":8986,"##洛":8987,"##浣":8988,"##綜":8989,"##蝴":8990,"##煥":8991,"##刺":8992,"##荆":8993,"##ᠠ":8994,"##ᠢ":8995,"##ᠶ":8996,"##ᠷ":8997,"##ዮ":8998,"##ጵ":8999,"##慾":9000,"##墾":9001,"##椒":9002,"##苕":9003,"##遁":9004,"##ǂ":9005,"##玺":9006,"##靜":9007,"##软":9008,"##丞":9009,"##涛":9010,"##恺":9011,"##玹":9012,"##燈":9013,"##坑":9014,"##ଭ":9015,"##苺":9016,"##ሬ":9017,"##扶":9018,"##忱":9019,"##ཕ":9020,"##罰":9021,"##锷":9022,"##秤":9023,"##锤":9024,"##咪":9025,"##ヲ":9026,"##杭":9027,"##結":9028,"##更":9029,"##慬":9030,"##姬":9031,"##騫":9032,"##雑":9033,"##继":9034,"##赞":9035,"##閒":9036,"##農":9037,"##এ":9038,"##菸":9039,"##残":9040,"##粮":9041,"##埤":9042,"##喇":9043,"##崑":9044,"##ཚ":9045,"##耶":9046,"##凤":9047,"##署":9048,"##ʥ":9049,"##硬":9050,"##濡":9051,"##斛":9052,"##妖":9053,"##佰":9054,"##顺":9055,"##ដ":9056,"##ឋ":9057,"##ធ":9058,"##蠡":9059,"##巨":9060,"##∃":9061,"##御":9062,"##試":9063,"##考":9064,"##粥":9065,"##圻":9066,"##绮":9067,"##憫":9068,"##帯":9069,"##憂":9070,"##鬱":9071,"##験":9072,"##轩":9073,"##愁":9074,"##窓":9075,"##启":9076,"##裏":9077,"##荡":9078,"##猪":9079,"##迫":9080,"##巴":9081,"##措":9082,"##义":9083,"##味":9084,"##ඹ":9085,"##诚":9086,"##ɘ":9087,"##叢":9088,"##ᴇ":9089,"##毒":9090,"##砥":9091,"##稿":9092,"##彩":9093,"##ⁱ":9094,"##厲":9095,"##驥":9096,"##監":9097,"##齋":9098,"##置":9099,"##舫":9100,"##卉":9101,"##遣":9102,"##屯":9103,"##烟":9104,"##委":9105,"##表":9106,"##囡":9107,"##ᠤ":9108,"##円":9109,"##宕":9110,"##雕":9111,"##默":9112,"##堰":9113,"##煒":9114,"##崛":9115,"##睹":9116,"##现":9117,"##菲":9118,"##託":9119,"##珩":9120,"##杞":9121,"##ছ":9122,"##４":9123,"##些":9124,"##饅":9125,"##隠":9126,"##傷":9127,"##简":9128,"##玖":9129,"##产":9130,"##勁":9131,"##甘":9132,"##魯":9133,"##傢":9134,"##俬":9135,"##稀":9136,"##ଆ":9137,"##ڬ":9138,"##煤":9139,"##瑀":9140,"##碁":9141,"##被":9142,"##候":9143,"##塑":9144,"##娟":9145,"##遞":9146,"##巌":9147,"##己":9148,"##脈":9149,"##咖":9150,"##啡":9151,"##巍":9152,"##ᡠ":9153,"##ᠺ":9154,"##ᠩ":9155,"##ᡤ":9156,"##岷":9157,"##樣":9158,"##ᇀ":9159,"##歷":9160,"##圖":9161,"##骏":9162,"##ጌ":9163,"##羚":9164,"##晉":9165,"##哥":9166,"##孛":9167,"##猷":9168,"##７":9169,"##终":9170,"##逝":9171,"##ȷ":9172,"##枸":9173,"##灿":9174,"##問":9175,"##捕":9176,"##誰":9177,"##抗":9178,"##见":9179,"##液":9180,"##涙":9181,"##肋":9182,"##撒":9183,"##炳":9184,"##ᖀ":9185,"##ᔩ":9186,"##葫":9187,"##芦":9188,"##當":9189,"##ჭ":9190,"##嘆":9191,"##盘":9192,"##ኸ":9193,"##覧":9194,"##込":9195,"##匯":9196,"##斑":9197,"##蛺":9198,"##櫟":9199,"##伽":9200,"##綾":9201,"##હ":9202,"##枚":9203,"##鞭":9204,"##渓":9205,"##仕":9206,"##掛":9207,"##稚":9208,"##猟":9209,"##嘘":9210,"##內":9211,"##ฝ":9212,"##渦":9213,"##ᅫ":9214,"##ښ":9215,"##络":9216,"##琨":9217,"##ㄨ":9218,"##ㄛ":9219,"##瑛":9220,"##璋":9221,"##則":9222,"##偷":9223,"##芷":9224,"##紜":9225,"##各":9226,"##购":9227,"##贞":9228,"##愈":9229,"##墮":9230,"##畳":9231,"##晋":9232,"##椋":9233,"##质":9234,"##纪":9235,"##阁":9236,"##茗":9237,"##斷":9238,"##腸":9239,"##砌":9240,"##豬":9241,"##壶":9242,"##賣":9243,"##ଫ":9244,"##ધ":9245,"##莞":9246,"##売":9247,"##螳":9248,"##啦":9249,"##脫":9250,"##襪":9251,"##莽":9252,"##廊":9253,"##鸽":9254,"##ላ":9255,"##ች":9256,"##¹":9257,"##瓷":9258,"##粉":9259,"##ᕆ":9260,"##ᖓ":9261,"##６":9262,"##繼":9263,"##招":9264,"##ഭ":9265,"##皐":9266,"##潛":9267,"##奔":9268,"##秉":9269,"##裾":9270,"##摸":9271,"##鱼":9272,"##µ":9273,"##ϕ":9274,"##從":9275,"##¬":9276,"##ঈ":9277,"##煕":9278,"##鈺":9279,"##輩":9280,"##楸":9281,"##亦":9282,"##循":9283,"##嵜":9284,"##煙":9285,"##騒":9286,"##笛":9287,"##ټ":9288,"##ｆ":9289,"##⅔":9290,"##澗":9291,"##砦":9292,"##ຮ":9293,"##胞":9294,"##ಞ":9295,"##瀅":9296,"##艳":9297,"##旗":9298,"##蛋":9299,"##皮":9300,"##糙":9301,"##鉬":9302,"##ᆽ":9303,"##ף":9304,"##ඞ":9305,"##痧":9306,"##奨":9307,"##仆":9308,"##炭":9309,"##承":9310,"##俏":9311,"##悟":9312,"##梠":9313,"##覺":9314,"##峻":9315,"##宣":9316,"##霏":9317,"##働":9318,"##ਜ":9319,"##历":9320,"##ﻟ":9321,"##ﻤ":9322,"##ﻐ":9323,"##ﺎ":9324,"##ﺭ":9325,"##ﺓ":9326,"##黃":9327,"##埔":9328,"##ღ":9329,"##轰":9330,"##姑":9331,"##帰":9332,"##硃":9333,"##伙":9334,"##ⲕ":9335,"##弦":9336,"##床":9337,"##莲":9338,"##笠":9339,"##ꯛ":9340,"##ꯇ":9341,"##訂":9342,"##尹":9343,"##孔":9344,"##棠":9345,"##茉":9346,"##啓":9347,"##蒙":9348,"##曙":9349,"##ﻭ":9350,"##ﻩ":9351,"##萊":9352,"##駿":9353,"##鳴":9354,"##ʸ":9355,"##堀":9356,"##辞":9357,"##姦":9358,"##胡":9359,"##荃":9360,"##殿":9361,"##勧":9362,"##寒":9363,"##综":9364,"##ᓲ":9365,"##ᓇ":9366,"##紘":9367,"##庄":9368,"##ｑ":9369,"##载":9370,"##宴":9371,"##图":9372,"##琪":9373,"##击":9374,"##战":9375,"##俵":9376,"##毓":9377,"##槽":9378,"##০":9379,"##১":9380,"##৩":9381,"##喊":9382,"##騨":9383,"##ಖ":9384,"##反":9385,"##隧":9386,"##診":9387,"##ဋ":9388,"##縁":9389,"##ខ":9390,"##囚":9391,"##訴":9392,"##辛":9393,"##拓":9394,"##ଉ":9395,"##閥":9396,"##恨":9397,"##ལ":9398,"##ଗ":9399,"##薫":9400,"##率":9401,"##玮":9402,"##激":9403,"##刁":9404,"##順":9405,"##汝":9406,"##帶":9407,"##舜":9408,"##♠":9409,"##臨":9410,"##燎":9411,"##幹":9412,"##ۆ":9413,"##ᓯ":9414,"##ᓛ":9415,"##鍊":9416,"##芹":9417,"##媚":9418,"##ჰ":9419,"##谦":9420,"##賽":9421,"##踏":9422,"##銳":9423,"##ਠ":9424,"##謝":9425,"##側":9426,"##轻":9427,"##冑":9428,"##渔":9429,"##杀":9430,"##欧":9431,"##ᅰ":9432,"##蜥":9433,"##蝪":9434,"##曄":9435,"##俗":9436,"##纲":9437,"##諾":9438,"##紗":9439,"##閔":9440,"##兼":9441,"##汶":9442,"##苹":9443,"##齐":9444,"##骨":9445,"##溲":9446,"##疏":9447,"##ሓ":9448,"##ኖ":9449,"##凪":9450,"##ᡴ":9451,"##炜":9452,"##狛":9453,"##ᡧ":9454,"##আ":9455,"##∞":9456,"##һ":9457,"##瑋":9458,"##ဥ":9459,"##贝":9460,"##隷":9461,"##墉":9462,"##惨":9463,"##炎":9464,"##勋":9465,"##⑧":9466,"##糧":9467,"##朵":9468,"##塩":9469,"##勢":9470,"##够":9471,"##蔴":9472,"##ᠡ":9473,"##蚊":9474,"##階":9475,"##ޖ":9476,"##悠":9477,"##搜":9478,"##拜":9479,"##鯉":9480,"##恐":9481,"##响":9482,"##极":9483,"##块":9484,"##告":9485,"##ଧ":9486,"##負":9487,"##龄":9488,"##帅":9489,"##鋼":9490,"##焜":9491,"##散":9492,"##悶":9493,"##茄":9494,"##浸":9495,"##籟":9496,"##绍":9497,"##踪":9498,"##欽":9499,"##畫":9500,"##晨":9501,"##礁":9502,"##耳":9503,"##۲":9504,"##仏":9505,"##非":9506,"##兎":9507,"##榎":9508,"##棣":9509,"##聴":9510,"##ۏ":9511,"##税":9512,"##錢":9513,"##其":9514,"##濂":9515,"##穗":9516,"##芙":9517,"##滋":9518,"##渉":9519,"##契":9520,"##¢":9521,"##鴉":9522,"##罳":9523,"##录":9524,"##结":9525,"##折":9526,"##纓":9527,"##誘":9528,"##ᠴ":9529,"##ᠣ":9530,"##᠎":9531,"##鐶":9532,"##鉤":9533,"##蓀":9534,"##害":9535,"##浒":9536,"##補":9537,"##滌":9538,"##淇":9539,"##麦":9540,"##僊":9541,"##縛":9542,"##畿":9543,"##ጋ":9544,"##₤":9545,"##铃":9546,"##±":9547,"##干":9548,"##隅":9549,"##壹":9550,"##泊":9551,"##匣":9552,"##ڏ":9553,"##筝":9554,"##鵰":9555,"##侶":9556,"##ﬁ":9557,"##ª":9558,"##筋":9559,"##樟":9560,"##厨":9561,"##炷":9562,"##烽":9563,"##撰":9564,"##旬":9565,"##剪":9566,"##鼠":9567,"##貓":9568,"##誡":9569,"##ና":9570,"##將":9571,"##磐":9572,"##梯":9573,"##侣":9574,"##栗":9575,"##偕":9576,"##榛":9577,"##胆":9578,"##眾":9579,"##蕉":9580,"##昼":9581,"##滢":9582,"##ළ":9583,"##奎":9584,"##娥":9585,"##週":9586,"##拼":9587,"##镞":9588,"##彌":9589,"##罐":9590,"##橫":9591,"##杯":9592,"##计":9593,"##ˢ":9594,"##醸":9595,"##蟲":9596,"##翅":9597,"##膀":9598,"##渭":9599,"##渠":9600,"##ҹ":9601,"##姸":9602,"##舗":9603,"##ﻫ":9604,"##ﻮ":9605,"##淮":9606,"##茎":9607,"##曾":9608,"##ཡ":9609,"##ꮎ":9610,"##ꮟ":9611,"##ஏ":9612,"##ⲭ":9613,"##ⲓ":9614,"##冷":9615,"##ཀ":9616,"##尿":9617,"##板":9618,"##糖":9619,"##隔":9620,"##裂":9621,"##査":9622,"##員":9623,"##賞":9624,"##ገ":9625,"##ሻ":9626,"##授":9627,"##梭":9628,"##划":9629,"##锋":9630,"##饰":9631,"##�":9632,"##ળ":9633,"##ᕋ":9634,"##谢":9635,"##刷":9636,"##积":9637,"##潭":9638,"##戈":9639,"##盧":9640,"##间":9641,"##叫":9642,"##跃":9643,"##蒼":9644,"##哭":9645,"##慄":9646,"##滑":9647,"##躁":9648,"##懷":9649,"##参":9650,"##炯":9651,"##峙":9652,"##ቴ":9653,"##飽":9654,"##驊":9655,"##泫":9656,"##ፈ":9657,"##ථ":9658,"##棲":9659,"##ޙ":9660,"##圆":9661,"##境":9662,"##磁":9663,"##悲":9664,"##応":9665,"##钦":9666,"##廻":9667,"##虞":9668,"##贖":9669,"##嗎":9670,"##ᆶ":9671,"##猩":9672,"##ዲ":9673,"##箕":9674,"##諸":9675,"##椿":9676,"##怜":9677,"##ﷲ":9678,"##ҟ":9679,"##ච":9680,"##執":9681,"##檻":9682,"##陣":9683,"##篤":9684,"##彻":9685,"##劃":9686,"##蛍":9687,"##蔥":9688,"##鉛":9689,"##筆":9690,"##睦":9691,"##幕":9692,"##寂":9693,"##寞":9694,"##怀":9695,"##谱":9696,"##領":9697,"##锡":9698,"##项":9699,"##膳":9700,"##۸":9701,"##۵":9702,"##蟹":9703,"##滝":9704,"##甫":9705,"##瑚":9706,"##旛":9707,"##ଘ":9708,"##響":9709,"##♯":9710,"##ˇ":9711,"##ꮃ":9712,"##ꭹ":9713,"##＞":9714,"##瑶":9715,"##麿":9716,"##矛":9717,"##恥":9718,"##彊":9719,"##ଢ":9720,"##ଙ":9721,"##堕":9722,"##ɮ":9723,"##佩":9724,"##伶":9725,"##岑":9726,"##৯":9727,"##艾":9728,"##艮":9729,"##５":9730,"##ཁ":9731,"##羌":9732,"##ᐋ":9733,"##兜":9734,"##濵":9735,"##测":9736,"##寛":9737,"##ሠ":9738,"##莘":9739,"##讓":9740,"##禽":9741,"##算":9742,"##酸":9743,"##枣":9744,"##找":9745,"##话":9746,"##凶":9747,"##ʤ":9748,"##釋":9749,"##迦":9750,"##捐":9751,"##倾":9752,"##ǁ":9753,"##橙":9754,"##滸":9755,"##針":9756,"##差":9757,"##ፅ":9758,"##赫":9759,"##鸿":9760,"##逵":9761,"##＜":9762,"##ⲗ":9763,"##ⲥ":9764,"##芒":9765,"##顿":9766,"##顔":9767,"##舌":9768,"##却":9769,"##於":9770,"##毀":9771,"##滅":9772,"##唄":9773,"##雍":9774,"##漂":9775,"##绿":9776,"##蔬":9777,"##牝":9778,"##調":9779,"##题":9780,"##砲":9781,"##萨":9782,"##煩":9783,"##駕":9784,"##籠":9785,"##墓":9786,"##脚":9787,"##ҥ":9788,"##ɸ":9789,"##ɧ":9790,"##瀛":9791,"##遇":9792,"##筱":9793,"##炫":9794,"##必":9795,"##雜":9796,"##ཛ":9797,"##昕":9798,"##瀚":9799,"##ｃ":9800,"##评":9801,"##论":9802,"##秦":9803,"##匹":9804,"##槻":9805,"##捷":9806,"##愷":9807,"##蔦":9808,"##昊":9809,"##韞":9810,"##糬":9811,"##題":9812,"##磊":9813,"##狮":9814,"##吼":9815,"##ዕ":9816,"##ਏ":9817,"##ឡ":9818,"##转":9819,"##欺":9820,"##摘":9821,"##皓":9822,"##颂":9823,"##节":9824,"##俣":9825,"##翊":9826,"##淞":9827,"##堺":9828,"##狱":9829,"##肠":9830,"##ഫ":9831,"##鴛":9832,"##鴦":9833,"##鹤":9834,"##殷":9835,"##龢":9836,"##狀":9837,"##芎":9838,"##塵":9839,"##弼":9840,"##贻":9841,"##講":9842,"##彤":9843,"##勞":9844,"##ჟ":9845,"##徹":9846,"##沈":9847,"##橹":9848,"##怒":9849,"##繚":9850,"##ਝ":9851,"##身":9852,"##役":9853,"##悅":9854,"##稠":9855,"##埈":9856,"##曹":9857,"##拯":9858,"##标":9859,"##准":9860,"##庸":9861,"##蒿":9862,"##午":9863,"##縫":9864,"##弁":9865,"##槐":9866,"##浄":9867,"##以":9868,"##祭":9869,"##８":9870,"##茅":9871,"##尖":9872,"##歉":9873,"##纵":9874,"##辦":9875,"##ꮹ":9876,"##敢":9877,"##踐":9878,"##凄":9879,"##祯":9880,"##闹":9881,"##ޔ":9882,"##叹":9883,"##ҕ":9884,"##踊":9885,"##箏":9886,"##琶":9887,"##妳":9888,"##餐":9889,"##廳":9890,"##勘":9891,"##鱀":9892,"##単":9893,"##过":9894,"##乌":9895,"##娱":9896,"##札":9897,"##货":9898,"##檔":9899,"##绝":9900,"##宵":9901,"##岔":9902,"##ખ":9903,"##菠":9904,"##蘿":9905,"##供":9906,"##厂":9907,"##虐":9908,"##畠":9909,"##鄉":9910,"##浮":9911,"##灃":9912,"##ｋ":9913,"##锐":9914,"##斋":9915,"##异":9916,"##钱":9917,"##預":9918,"##騷":9919,"##軾":9920,"##賡":9921,"##ڊ":9922,"##顯":9923,"##盒":9924,"##庚":9925,"##段":9926,"##ゑ":9927,"##渝":9928,"##摇":9929,"##滚":9930,"##鍼":9931,"##灸":9932,"##毎":9933,"##哀":9934,"##凰":9935,"##ᕗ":9936,"##ᒥ":9937,"##膩":9938,"##梢":9939,"##著":9940,"##罕":9941,"##嫻":9942,"##混":9943,"##哮":9944,"##苍":9945,"##ଵ":9946,"##♪":9947,"##釣":9948,"##鱷":9949,"##営":9950,"##ⲅ":9951,"##蒸":9952,"##ފ":9953,"##愿":9954,"##荫":9955,"##礦":9956,"##瓜":9957,"##狙":9958,"##单":9959,"##骑":9960,"##ᆰ":9961,"##廂":9962,"##疑":9963,"##仑":9964,"##ⵣ":9965,"##吊":9966,"##槇":9967,"##璠":9968,"##甄":9969,"##ເ":9970,"##ບ":9971,"##ຍ":9972,"##鎔":9973,"##ሜ":9974,"##ଇ":9975,"##憚":9976,"##纜":9977,"##吧":9978,"##辅":9979,"##笈":9980,"##辙":9981,"##焦":9982,"##线":9983,"##訶":9984,"##櫻":9985,"##ఱ":9986,"##｜":9987,"##钝":9988,"##寄":9989,"##选":9990,"##ഠ":9991,"##层":9992,"##咳":9993,"##煊":9994,"##♀":9995,"##㋮":9996,"##अ":9997,"##璽":9998,"##腹":9999,"##०":10000,"##頑":10001,"##敖":10002,"##返":10003,"##豫":10004,"##桶":10005,"##鸡":10006,"##棕":10007,"##襟":10008,"##贷":10009,"##閘":10010,"##ဠ":10011,"##绘":10012,"##ﺪ":10013,"##ﻗ":10014,"##ﺕ":10015,"##蓝":10016,"##৭":10017,"##২":10018,"##ψ":10019,"##ܦ":10020,"##釗":10021,"##卜":10022,"##勒":10023,"##议":10024,"##员":10025,"##觐":10026,"##优":10027,"##ˮ":10028,"##ኮ":10029,"##汀":10030,"##遙":10031,"##距":10032,"##ஃ":10033,"##ટ":10034,"##簇":10035,"##ⲇ":10036,"##ⲝ":10037,"##缝":10038,"##宛":10039,"##諭":10040,"##羲":10041,"##婴":10042,"##ሆ":10043,"##♣":10044,"##葛":10045,"##鹽":10046,"##秒":10047,"##桐":10048,"##亘":10049,"##ﺤ":10050,"##ﺩ":10051,"##估":10052,"##弓":10053,"##退":10054,"##ఙ":10055,"##琊":10056,"##ဉ":10057,"##晔":10058,"##ඨ":10059,"##辻":10060,"##妃":10061,"##鏇":10062,"##笨":10063,"##排":10064,"##迅":10065,"##陞":10066,"##喬":10067,"##堤":10068,"##脂":10069,"##ㄠ":10070,"##ˋ":10071,"##疲":10072,"##审":10073,"##∀":10074,"##飯":10075,"##峨":10076,"##削":10077,"##澍":10078,"##棵":10079,"##昔":10080,"##墅":10081,"##钩":10082,"##巖":10083,"##ﻌ":10084,"##ﺘ":10085,"##ﻲ":10086,"##ﻳ":10087,"##ﻥ":10088,"##ᡥ":10089,"##ᡝ":10090,"##薙":10091,"##層":10092,"##ສ":10093,"##ᕙ":10094,"##ᓕ":10095,"##鏞":10096,"##輕":10097,"##鯤":10098,"##ൺ":10099,"##ᡵ":10100,"##啊":10101,"##套":10102,"##蹄":10103,"##錬":10104,"##ﮭ":10105,"##瀾":10106,"##昀":10107,"##ﮈ":10108,"##ﺳ":10109,"##輌":10110,"##鏗":10111,"##ຳ":10112,"##甯":10113,"##複":10114,"##淫":10115,"##决":10116,"##浴":10117,"##矩":10118,"##翳":10119,"##讃":10120,"##虛":10121,"##给":10122,"##支":10123,"##妈":10124,"##ሣ":10125,"##嘎":10126,"##紹":10127,"##㈜":10128,"##暫":10129,"##说":10130,"##奖":10131,"##笏":10132,"##浅":10133,"##靡":10134,"##坪":10135,"##緑":10136,"##遭":10137,"##驰":10138,"##℃":10139,"##菰":10140,"##茱":10141,"##萸":10142,"##訳":10143,"##擂":10144,"##￠":10145,"##芭":10146,"##宥":10147,"##鬪":10148,"##祇":10149,"##晏":10150,"##鸮":10151,"##蜂":10152,"##巫":10153,"##紛":10154,"##檗":10155,"##赵":10156,"##獻":10157,"##替":10158,"##碍":10159,"##椎":10160,"##鲲":10161,"##彰":10162,"##芽":10163,"##臼":10164,"##ސ":10165,"##ڙ":10166,"##驷":10167,"##殘":10168,"##缺":10169,"##ໄ":10170,"##ຕ":10171,"##骞":10172,"##镜":10173,"##ɓ":10174,"##奋":10175,"##蕭":10176,"##ဈ":10177,"##隱":10178,"##让":10179,"##盾":10180,"##靄":10181,"##≤":10182,"##薈":10183,"##禾":10184,"##በ":10185,"##ڛ":10186,"##咀":10187,"##逮":10188,"##ڨ":10189,"##銓":10190,"##腩":10191,"##窩":10192,"##歐":10193,"##蛾":10194,"##铜":10195,"##ڭ":10196,"##鎭":10197,"##●":10198,"##ሚ":10199,"##ካ":10200,"##亢":10201,"##臂":10202,"##墟":10203,"##堇":10204,"##妇":10205,"##ຊ":10206,"##勿":10207,"##扰":10208,"##堆":10209,"##絃":10210,"##磯":10211,"##瀧":10212,"##遂":10213,"##ຽ":10214,"##崍":10215,"##遗":10216,"##对":10217,"##÷":10218,"##籃":10219,"##ﺸ":10220,"##ﻖ":10221,"##碌":10222,"##蔗":10223,"##耐":10224,"##剌":10225,"##９":10226,"##権":10227,"##崴":10228,"##庁":10229,"##恆":10230,"##矣":10231,"##⁴":10232,"##謨":10233,"##淺":10234,"##ຄ":10235,"##ɚ":10236,"##ዩ":10237,"##勰":10238,"##ㇰ":10239,"##鄂":10240,"##ﮌ":10241,"##買":10242,"##牌":10243,"##洱":10244,"##蠻":10245,"##ޝ":10246,"##踯":10247,"##躅":10248,"##祜":10249,"##ଅ":10250,"##ਧ":10251,"##駟":10252,"##只":10253,"##惟":10254,"##ቂ":10255,"##孙":10256,"##棍":10257,"##ᐸ":10258,"##˨":10259,"##₵":10260,"##ኪ":10261,"##刹":10262,"##势":10263,"##緊":10264,"##छ":10265,"##琲":10266,"##瞻":10267,"##砻":10268,"##肥":10269,"##轨":10270,"##沸":10271,"##効":10272,"##腦":10273,"##棄":10274,"##孃":10275,"##蓼":10276,"##戴":10277,"##把":10278,"##咕":10279,"##呖":10280,"##碰":10281,"##焉":10282,"##俭":10283,"##೯":10284,"##匪":10285,"##٤":10286,"##预":10287,"##熈":10288,"##檳":10289,"##藪":10290,"##⁵":10291,"##挑":10292,"##幫":10293,"##拐":10294,"##ඟ":10295,"##ሉ":10296,"##墳":10297,"##齡":10298,"##榧":10299,"##ଞ":10300,"##蛛":10301,"##ઠ":10302,"##圃":10303,"##傅":10304,"##馗":10305,"##ቱ":10306,"##溺":10307,"##啸":10308,"##隼":10309,"##ﺴ":10310,"##泥":10311,"##ཟ":10312,"##ኒ":10313,"##ቨ":10314,"##ቲ":10315,"##苦":10316,"##徐":10317,"##ກ":10318,"##鸣":10319,"##隣":10320,"##榈":10321,"##ⅳ":10322,"##ఫ":10323,"##炸":10324,"##泡":10325,"##ﻧ":10326,"##靼":10327,"##衰":10328,"##彪":10329,"##ⲡ":10330,"##笃":10331,"##淄":10332,"##匙":10333,"##般":10334,"##莢":10335,"##蕨":10336,"##屈":10337,"##灘":10338,"##灌":10339,"##盗":10340,"##邊":10341,"##馳":10342,"##蛟":10343,"##⅝":10344,"##犀":10345,"##燒":10346,"##讐":10347,"##ⲱ":10348,"##銹":10349,"##櫓":10350,"##喷":10351,"##葆":10352,"##谭":10353,"##劉":10354,"##躍":10355,"##荦":10356,"##٧":10357,"##荊":10358,"##龟":10359,"##糕":10360,"##餅":10361,"##届":10362,"##吏":10363,"##欒":10364,"##♙":10365,"##ጉ":10366,"##ཇ":10367,"##郭":10368,"##宠":10369,"##ぇ":10370,"##韩":10371,"##郑":10372,"##畢":10373,"##胖":10374,"##菀":10375,"##ঢ":10376,"##戟":10377,"##翁":10378,"##劣":10379,"##鸟":10380,"##ゐ":10381,"##核":10382,"##冨":10383,"##笼":10384,"##剋":10385,"##鑌":10386,"##昴":10387,"##嶌":10388,"##樨":10389,"##聚":10390,"##串":10391,"##辭":10392,"##龜":10393,"##眸":10394,"##币":10395,"##読":10396,"##鍵":10397,"##ﭙ":10398,"##ﺱ":10399,"##寨":10400,"##ሄ":10401,"##臓":10402,"##沃":10403,"##භ":10404,"##莼":10405,"##楝":10406,"##权":10407,"##胸":10408,"##乞":10409,"##蟇":10410,"##陪":10411,"##ቶ":10412,"##檜":10413,"##已":10414,"##褲":10415,"##萃":10416,"##泗":10417,"##競":10418,"##吃":10419,"##覇":10420,"##奶":10421,"##唔":10422,"##做":10423,"##鵲":10424,"##項":10425,"##挚":10426,"##ډ":10427,"##儲":10428,"##ઇ":10429,"##琇":10430,"##嚴":10431,"##歲":10432,"##獲":10433,"##栖":10434,"##ਅ":10435,"##寬":10436,"##舺":10437,"##膽":10438,"##临":10439,"##ڇ":10440,"##遜":10441,"##蹊":10442,"##ഐ":10443,"##谣":10444,"##ƶ":10445,"##驃":10446,"##劳":10447,"##誂":10448,"##爀":10449,"##鶏":10450,"##莓":10451,"##憎":10452,"##菌":10453,"##ቡ":10454,"##ଏ":10455,"##ಘ":10456,"##尧":10457,"##两":10458,"##亩":10459,"##滄":10460,"##嬰":10461,"##敛":10462,"##馒":10463,"##歡":10464,"##ኋ":10465,"##ᡣ":10466,"##ᡞ":10467,"##喃":10468,"##蝕":10469,"##ጀ":10470,"##郸":10471,"##ᡡ":10472,"##ᠸ":10473,"##詳":10474,"##ޓ":10475,"##豹":10476,"##絕":10477,"##烔":10478,"##裳":10479,"##ཆ":10480,"##拖":10481,"##昧":10482,"##釈":10483,"##玥":10484,"##媽":10485,"##鹅":10486,"##枥":10487,"##鏵":10488,"##ぁ":10489,"##∙":10490,"##羣":10491,"##爪":10492,"##买":10493,"##桧":10494,"##閎":10495,"##ኝ":10496,"##銶":10497,"##琚":10498,"##ຢ":10499,"##詒":10500,"##珪":10501,"##ﺁ":10502,"##彗":10503,"##點":10504,"##识":10505,"##鉴":10506,"##扦":10507,"##樺":10508,"##驿":10509,"##痴":10510,"##裔":10511,"##ӕ":10512,"##錘":10513,"##煉":10514,"##函":10515,"##ሸ":10516,"##泣":10517,"##ཉ":10518,"##ﺑ":10519,"##蕩":10520,"##壢":10521,"##址":10522,"##∏":10523,"##圏":10524,"##畏":10525,"##ሁ":10526,"##抑":10527,"##圧":10528,"##韫":10529,"##襖":10530,"##瑤":10531,"##he":10532,"##er":10533,"the":10534,"##an":10535,"##in":10536,"##or":10537,"in":10538,"##on":10539,"##es":10540,"##ed":10541,"##ar":10542,"##at":10543,"##en":10544,"##al":10545,"##as":10546,"an":10547,"of":10548,"##ic":10549,"##is":10550,"is":10551,"##it":10552,"and":10553,"##il":10554,"##ou":10555,"##om":10556,"##ing":10557,"##el":10558,"##ol":10559,"##ion":10560,"##re":10561,"##am":10562,"19":10563,"was":10564,"##ec":10565,"it":10566,"##ent":10567,"##us":10568,"##ro":10569,"to":10570,"st":10571,"##ch":10572,"##et":10573,"##iv":10574,"##ur":10575,"##ist":10576,"by":10577,"##ad":10578,"##th":10579,"on":10580,"al":10581,"for":10582,"##st":10583,"##le":10584,"as":10585,"##ir":10586,"##id":10587,"##ig":10588,"##ac":10589,"##em":10590,"##ow":10591,"##ly":10592,"##oun":10593,"##ation":10594,"##and":10595,"##um":10596,"20":10597,"##ia":10598,"##ter":10599,"##ian":10600,"##ay":10601,"th":10602,"fr":10603,"##oc":10604,"##ag":10605,"##ers":10606,"com":10607,"##ies":10608,"##ot":10609,"ch":10610,"##ul":10611,"un":10612,"##ut":10613,"##un":10614,"re":10615,"##est":10616,"##im":10617,"he":10618,"##ber":10619,"##ith":10620,"##ub":10621,"##ce":10622,"##ov":10623,"at":10624,"pro":10625,"sp":10626,"##ct":10627,"with":10628,"##ill":10629,"##os":10630,"wh":10631,"pl":10632,"##op":10633,"200":10634,"##ab":10635,"##ap":10636,"from":10637,"##ain":10638,"##ric":10639,"##mer":10640,"##ated":10641,"ne":10642,"##ip":10643,"sch":10644,"##orn":10645,"##av":10646,"##all":10647,"##ak":10648,"##ool":10649,"##od":10650,"##ud":10651,"con":10652,"school":10653,"en":10654,"##her":10655,"##ount":10656,"ar":10657,"be":10658,"##ary":10659,"##ity":10660,"de":10661,"or":10662,"##igh":10663,"##ish":10664,"##ate":10665,"sh":10666,"##art":10667,"pr":10668,"se":10669,"##ge":10670,"tr":10671,"le":10672,"##ant":10673,"##ess":10674,"##ive":10675,"##ast":10676,"comp":10677,"dist":10678,"##if":10679,"##ort":10680,"##ard":10681,"##uc":10682,"##ound":10683,"fil":10684,"##own":10685,"##ased":10686,"##ine":10687,"18":10688,"ser":10689,"film":10690,"##ous":10691,"born":10692,"##amil":10693,"##ember":10694,"##ord":10695,"br":10696,"##ect":10697,"##ong":10698,"##age":10699,"##ust":10700,"##ich":10701,"sou":10702,"alb":10703,"##rict":10704,"##ell":10705,"##ele":10706,"##so":10707,"district":10708,"##ubl":10709,"loc":10710,"col":10711,"##ie":10712,"##ass":10713,"its":10714,"count":10715,"spec":10716,"famil":10717,"album":10718,"bo":10719,"##our":10720,"cl":10721,"gr":10722,"also":10723,"mar":10724,"bu":10725,"new":10726,"are":10727,"##ican":10728,"amer":10729,"kn":10730,"##ial":10731,"199":10732,"##ae":10733,"##ire":10734,"##hed":10735,"##any":10736,"fir":10737,"has":10738,"##ue":10739,"his":10740,"ap":10741,"buil":10742,"known":10743,"##ational":10744,"##land":10745,"##ib":10746,"198":10747,"rec":10748,"##ame":10749,"##ok":10750,"##tern":10751,"nor":10752,"ad":10753,"rele":10754,"first":10755,"play":10756,"species":10757,"family":10758,"##per":10759,"##og":10760,"publ":10761,"county":10762,"##ver":10763,"##ral":10764,"##ical":10765,"ind":10766,"american":10767,"wor":10768,"##ited":10769,"located":10770,"cent":10771,"201":10772,"##iz":10773,"##iver":10774,"##00":10775,"sc":10776,"that":10777,"##ear":10778,"##ates":10779,"##ra":10780,"pol":10781,"found":10782,"##ond":10783,"vill":10784,"##ore":10785,"##gh":10786,"##ld":10787,"south":10788,"gen":10789,"fe":10790,"comm":10791,"##man":10792,"serv":10793,"mo":10794,"village":10795,"she":10796,"197":10797,"##ack":10798,"##rit":10799,"##ens":10800,"released":10801,"who":10802,"car":10803,"##ang":10804,"##der":10805,"fl":10806,"river":10807,"af":10808,"ex":10809,"##ry":10810,"##duc":10811,"##res":10812,"part":10813,"ac":10814,"##ivers":10815,"##az":10816,"which":10817,"nov":10818,"##io":10819,"##ment":10820,"north":10821,"high":10822,"eng":10823,"##ey":10824,"rep":10825,"##wn":10826,"ro":10827,"##ru":10828,"one":10829,"inc":10830,"##qu":10831,"##ree":10832,"mus":10833,"##ace":10834,"us":10835,"united":10836,"##ished":10837,"##ight":10838,"ab":10839,"univers":10840,"record":10841,"##aw":10842,"##wo":10843,"##ince":10844,"##ory":10845,"##ug":10846,"##ative":10847,"reg":10848,"196":10849,"##ah":10850,"her":10851,"##end":10852,"##pt":10853,"##ail":10854,"##irect":10855,"stud":10856,"des":10857,"mi":10858,"direct":10859,"##ther":10860,"##ans":10861,"co":10862,"company":10863,"hist":10864,"par":10865,"##ough":10866,"el":10867,"##ign":10868,"can":10869,"##ina":10870,"##ice":10871,"##sh":10872,"states":10873,"##ock":10874,"##rop":10875,"194":10876,"##ide":10877,"##ater":10878,"##ure":10879,"##ional":10880,"university":10881,"fo":10882,"##ik":10883,"##ach":10884,"pop":10885,"##ouse":10886,"app":10887,"built":10888,"prov":10889,"sec":10890,"man":10891,"national":10892,"##ball":10893,"jo":10894,"##hn":10895,"bl":10896,"##out":10897,"195":10898,"sing":10899,"##we":10900,"##ake":10901,"##iss":10902,"##ton":10903,"##ely":10904,"te":10905,"west":10906,"##ts":10907,"su":10908,"sub":10909,"rom":10910,"per":10911,"war":10912,"this":10913,"two":10914,"writ":10915,"##lud":10916,"##ding":10917,"class":10918,"##ence":10919,"##amp":10920,"includ":10921,"year":10922,"##ep":10923,"histor":10924,"colle":10925,"##ern":10926,"popul":10927,"ir":10928,"house":10929,"##oll":10930,"world":10931,"cont":10932,"off":10933,"min":10934,"foot":10935,"##ank":10936,"genus":10937,"##ese":10938,"##ath":10939,"whe":10940,"based":10941,"##to":10942,"res":10943,"directed":10944,"##inal":10945,"east":10946,"##urr":10947,"##uring":10948,"##ural":10949,"##ft":10950,"##ere":10951,"##enn":10952,"ger":10953,"mount":10954,"##les":10955,"former":10956,"mon":10957,"dr":10958,"la":10959,"##idae":10960,"aust":10961,"music":10962,"ph":10963,"##ten":10964,"km":10965,"second":10966,"plant":10967,"##ork":10968,"star":10969,"roman":10970,"college":10971,"gre":10972,"##act":10973,"##anc":10974,"state":10975,"##mp":10976,"##ade":10977,"name":10978,"me":10979,"band":10980,"book":10981,"##ult":10982,"may":10983,"football":10984,"city":10985,"member":10986,"air":10987,"pre":10988,"central":10989,"##ents":10990,"##ier":10991,"lar":10992,"after":10993,"all":10994,"novel":10995,"published":10996,"##ite":10997,"ed":10998,"produc":10999,"##ome":11000,"bet":11001,"##te":11002,"2006":11003,"art":11004,"bro":11005,"193":11006,"but":11007,"not":11008,"dec":11009,"nav":11010,"up":11011,"historic":11012,"##yl":11013,"##iel":11014,"sm":11015,"##se":11016,"##ime":11017,"##aj":11018,"pe":11019,"polit":11020,"##gr":11021,"##urch":11022,"##ict":11023,"##ister":11024,"17":11025,"##son":11026,"##vel":11027,"med":11028,"po":11029,"##old":11030,"gu":11031,"##ions":11032,"population":11033,"jun":11034,"##ance":11035,"were":11036,"building":11037,"under":11038,"austral":11039,"12":11040,"##ward":11041,"met":11042,"cap":11043,"##ower":11044,"##ied":11045,"jan":11046,"lake":11047,"cal":11048,"end":11049,"thr":11050,"act":11051,"##esh":11052,"mountain":11053,"canad":11054,"design":11055,"192":11056,"am":11057,"brit":11058,"##ai":11059,"orig":11060,"191":11061,"during":11062,"public":11063,"nam":11064,"been":11065,"##ica":11066,"curr":11067,"##ized":11068,"ag":11069,"work":11070,"province":11071,"##ff":11072,"ass":11073,"##ick":11074,"current":11075,"church":11076,"ship":11077,"about":11078,"##sp":11079,"##omet":11080,"founded":11081,"##ual":11082,"song":11083,"oper":11084,"##ood":11085,"##ibut":11086,"##ob":11087,"##ile":11088,"navy":11089,"##au":11090,"##oup":11091,"##ics":11092,"feat":11093,"##are":11094,"cr":11095,"elect":11096,"prof":11097,"##ween":11098,"10":11099,"##olog":11100,"##ley":11101,"between":11102,"played":11103,"repres":11104,"##ician":11105,"est":11106,"cons":11107,"john":11108,"british":11109,"##ale":11110,"##ase":11111,"##one":11112,"##estern":11113,"##lish":11114,"ju":11115,"pers":11116,"##ave":11117,"only":11118,"##du":11119,"sy":11120,"##ix":11121,"original":11122,"##ital":11123,"##ations":11124,"##uary":11125,"four":11126,"through":11127,"##min":11128,"most":11129,"sw":11130,"york":11131,"##ring":11132,"ge":11133,"series":11134,"ear":11135,"##ons":11136,"char":11137,"##aceae":11138,"##isc":11139,"we":11140,"##ors":11141,"written":11142,"oct":11143,"##ious":11144,"##apan":11145,"january":11146,"11":11147,"##eral":11148,"##uss":11149,"##row":11150,"other":11151,"15":11152,"aug":11153,"16":11154,"politician":11155,"represent":11156,"japan":11157,"bar":11158,"their":11159,"##for":11160,"pres":11161,"over":11162,"sept":11163,"##ober":11164,"english":11165,"educ":11166,"group":11167,"three":11168,"august":11169,"nort":11170,"march":11171,"##air":11172,"september":11173,"october":11174,"rock":11175,"long":11176,"intern":11177,"##int":11178,"##iam":11179,"##enc":11180,"##ately":11181,"within":11182,"##ril":11183,"served":11184,"##way":11185,"had":11186,"##iet":11187,"##ind":11188,"main":11189,"##emic":11190,"profess":11191,"best":11192,"##ama":11193,"inst":11194,"##0s":11195,"bec":11196,"own":11197,"gl":11198,"april":11199,"june":11200,"##ann":11201,"##ys":11202,"story":11203,"op":11204,"into":11205,"##eng":11206,"november":11207,"cens":11208,"##ures":11209,"since":11210,"##inn":11211,"##ange":11212,"##ourn":11213,"will":11214,"census":11215,"records":11216,"july":11217,"bus":11218,"##xim":11219,"##let":11220,"##ane":11221,"##ose":11222,"##ition":11223,"common":11224,"mid":11225,"produced":11226,"##istr":11227,"##ph":11228,"form":11229,"appro":11230,"named":11231,"sci":11232,"##duct":11233,"rev":11234,"##ash":11235,"##ird":11236,"##able":11237,"admin":11238,"##ery":11239,"december":11240,"small":11241,"iran":11242,"lab":11243,"##ague":11244,"##fer":11245,"##hes":11246,"##ark":11247,"international":11248,"western":11249,"##att":11250,"##ury":11251,"##lin":11252,"13":11253,"##astern":11254,"cor":11255,"calif":11256,"californ":11257,"kil":11258,"rural":11259,"##ings":11260,"trans":11261,"##bru":11262,"currently":11263,"14":11264,"##ost":11265,"##port":11266,"##ench":11267,"near":11268,"out":11269,"febru":11270,"february":11271,"area":11272,"##raft":11273,"vo":11274,"california":11275,"ste":11276,"mag":11277,"administr":11278,"##ruct":11279,"bel":11280,"##gan":11281,"well":11282,"##up":11283,"poland":11284,"##ka":11285,"town":11286,"##ives":11287,"chr":11288,"german":11289,"french":11290,"mil":11291,"##ship":11292,"persian":11293,"##cr":11294,"2010":11295,"professional":11296,"##uth":11297,"gov":11298,"approxim":11299,"##yp":11300,"lead":11301,"##ior":11302,"league":11303,"##ket":11304,"##ros":11305,"##lo":11306,"har":11307,"stre":11308,"##ames":11309,"they":11310,"##til":11311,"##hen":11312,"singer":11313,"190":11314,"##velop":11315,"where":11316,"approximately":11317,"##inc":11318,"kilomet":11319,"##ull":11320,"head":11321,"mov":11322,"develop":11323,"govern":11324,"studio":11325,"##ild":11326,"##bert":11327,"##ision":11328,"russ":11329,"ev":11330,"time":11331,"years":11332,"ital":11333,"product":11334,"native":11335,"##yn":11336,"list":11337,"##urn":11338,"const":11339,"##abl":11340,"island":11341,"##bo":11342,"deb":11343,"##over":11344,"plac":11345,"##ific":11346,"ter":11347,"##ium":11348,"ret":11349,"so":11350,"port":11351,"2007":11352,"##ana":11353,"##fl":11354,"tit":11355,"2008":11356,"##pl":11357,"including":11358,"dep":11359,"##emb":11360,"journ":11361,"##ms":11362,"##ident":11363,"##por":11364,"##ins":11365,"##ission":11366,"sl":11367,"##ke":11368,"2009":11369,"##its":11370,"lies":11371,"acad":11372,"##ield":11373,"coll":11374,"eu":11375,"2011":11376,"cre":11377,"##oph":11378,"av":11379,"endemic":11380,"att":11381,"larg":11382,"no":11383,"sen":11384,"##hern":11385,"commun":11386,"geor":11387,"##oss":11388,"189":11389,"##itut":11390,"mal":11391,"old":11392,"##by":11393,"students":11394,"tec":11395,"families":11396,"india":11397,"have":11398,"qu":11399,"gm":11400,"##ology":11401,"kilometres":11402,"award":11403,"##ki":11404,"romanized":11405,"artist":11406,"##br":11407,"##ille":11408,"northern":11409,"##ices":11410,"indian":11411,"sn":11412,"##unc":11413,"souther":11414,"##ows":11415,"australia":11416,"##rat":11417,"acc":11418,"##und":11419,"later":11420,"25":11421,"##ek":11422,"southern":11423,"##ters":11424,"##ott":11425,"##ablished":11426,"##ropical":11427,"journal":11428,"established":11429,"moth":11430,"until":11431,"2012":11432,"##ania":11433,"##ster":11434,"dem":11435,"##fore":11436,"call":11437,"auth":11438,"short":11439,"val":11440,"soc":11441,"##abit":11442,"player":11443,"##ife":11444,"made":11445,"phil":11446,"debut":11447,"##uf":11448,"num":11449,"more":11450,"ep":11451,"wal":11452,"when":11453,"now":11454,"administrative":11455,"##ington":11456,"##af":11457,"##ont":11458,"republ":11459,"ii":11460,"##ened":11461,"label":11462,"register":11463,"maj":11464,"camp":11465,"##cc":11466,"before":11467,"##ene":11468,"law":11469,"care":11470,"##ham":11471,"england":11472,"foll":11473,"var":11474,"##ection":11475,"afric":11476,"mod":11477,"##eship":11478,"##ax":11479,"starring":11480,"mot":11481,"park":11482,"sim":11483,"institut":11484,"##iness":11485,"##ise":11486,"sal":11487,"##ne":11488,"gmina":11489,"techn":11490,"rel":11491,"##itt":11492,"habit":11493,"del":11494,"il":11495,"canadian":11496,"##ivod":11497,"service":11498,"voivod":11499,"30":11500,"priv":11501,"originally":11502,"eastern":11503,"voivodeship":11504,"author":11505,"red":11506,"sol":11507,"far":11508,"team":11509,"roy":11510,"inter":11511,"won":11512,"canada":11513,"str":11514,"##iew":11515,"sum":11516,"grow":11517,"bas":11518,"##ement":11519,"##ines":11520,"business":11521,"general":11522,"habitat":11523,"san":11524,"##red":11525,"21":11526,"ang":11527,"nat":11528,"##uck":11529,"##erv":11530,"street":11531,"christ":11532,"mas":11533,"william":11534,"add":11535,"kh":11536,"##ri":11537,"##ator":11538,"germ":11539,"##aper":11540,"2013":11541,"arch":11542,"forest":11543,"hel":11544,"##ipal":11545,"##eh":11546,"##ider":11547,"##ata":11548,"black":11549,"188":11550,"##form":11551,"my":11552,"pat":11553,"##rap":11554,"##yle":11555,"set":11556,"flower":11557,"down":11558,"king":11559,"go":11560,"22":11561,"designed":11562,"pet":11563,"sur":11564,"2005":11565,"##ony":11566,"education":11567,"rem":11568,"##ities":11569,"engine":11570,"europ":11571,"germany":11572,"##ains":11573,"australian":11574,"early":11575,"major":11576,"##ired":11577,"tribut":11578,"##omin":11579,"third":11580,"ele":11581,"japanese":11582,"america":11583,"six":11584,"##ribut":11585,"sea":11586,"mill":11587,"places":11588,"##epend":11589,"independ":11590,"##ville":11591,"##ival":11592,"24":11593,"europe":11594,"mer":11595,"##craft":11596,"range":11597,"grad":11598,"##ipp":11599,"que":11600,"che":11601,"ec":11602,"party":11603,"sil":11604,"both":11605,"leg":11606,"##bia":11607,"regional":11608,"plays":11609,"prev":11610,"fin":11611,"##ove":11612,"largest":11613,"dav":11614,"##ole":11615,"single":11616,"mich":11617,"capital":11618,"2004":11619,"many":11620,"footballer":11621,"listed":11622,"chin":11623,"magaz":11624,"##ived":11625,"sever":11626,"##ung":11627,"##ating":11628,"pa":11629,"##ular":11630,"arm":11631,"sk":11632,"bank":11633,"science":11634,"##ays":11635,"##ike":11636,"italian":11637,"aircraft":11638,"being":11639,"##ford":11640,"##ross":11641,"##ico":11642,"white":11643,"##ides":11644,"23":11645,"stor":11646,"mass":11647,"imp":11648,"##ert":11649,"##iation":11650,"royal":11651,"tex":11652,"special":11653,"there":11654,"recorded":11655,"russian":11656,"appear":11657,"used":11658,"vol":11659,"some":11660,"tur":11661,"home":11662,"progr":11663,"uk":11664,"mun":11665,"##mar":11666,"##cess":11667,"je":11668,"than":11669,"##edy":11670,"##imes":11671,"##bur":11672,"schools":11673,"##reek":11674,"cat":11675,"##vent":11676,"em":11677,"sup":11678,"hol":11679,"run":11680,"private":11681,"land":11682,"ann":11683,"several":11684,"called":11685,"vir":11686,"##ner":11687,"cour":11688,"fict":11689,"commission":11690,"##yc":11691,"tributary":11692,"bre":11693,"independent":11694,"26":11695,"follow":11696,"tw":11697,"##ve":11698,"chinese":11699,"career":11700,"ma":11701,"##stem":11702,"##ty":11703,"##gin":11704,"int":11705,"2002":11706,"top":11707,"owned":11708,"##que":11709,"previous":11710,"def":11711,"28":11712,"187":11713,"ext":11714,"along":11715,"2000":11716,"##ida":11717,"prim":11718,"lim":11719,"region":11720,"number":11721,"lond":11722,"hill":11723,"magazine":11724,"27":11725,"##uk":11726,"2003":11727,"##ufact":11728,"##crib":11729,"manufact":11730,"##che":11731,"london":11732,"penn":11733,"##emy":11734,"track":11735,"mont":11736,"##000":11737,"enter":11738,"##ren":11739,"##ara":11740,"construct":11741,"##go":11742,"##ress":11743,"lo":11744,"##idge":11745,"president":11746,"became":11747,"launc":11748,"suc":11749,"same":11750,"flowering":11751,"mex":11752,"186":11753,"do":11754,"wood":11755,"wing":11756,"##ron":11757,"##ris":11758,"pass":11759,"bal":11760,"minister":11761,"century":11762,"system":11763,"##itu":11764,"peop":11765,"child":11766,"es":11767,"title":11768,"mor":11769,"country":11770,"div":11771,"writer":11772,"assoc":11773,"launched":11774,"##azil":11775,"live":11776,"##osp":11777,"im":11778,"##ech":11779,"champ":11780,"##els":11781,"describ":11782,"##ze":11783,"start":11784,"muse":11785,"mc":11786,"coast":11787,"features":11788,"##als":11789,"democ":11790,"people":11791,"bay":11792,"##shire":11793,"manag":11794,"history":11795,"brazil":11796,"##writ":11797,"##ee":11798,"such":11799,"drama":11800,"road":11801,"##anish":11802,"songs":11803,"##ograp":11804,"rail":11805,"james":11806,"club":11807,"five":11808,"life":11809,"uss":11810,"##abad":11811,"##ues":11812,"center":11813,"##tain":11814,"29":11815,"##oung":11816,"##ylv":11817,"comedy":11818,"then":11819,"compos":11820,"lou":11821,"style":11822,"government":11823,"##ler":11824,"large":11825,"young":11826,"##led":11827,"just":11828,"democrat":11829,"##line":11830,"hig":11831,"##omot":11832,"ft":11833,"academy":11834,"museum":11835,"typ":11836,"rich":11837,"services":11838,"tele":11839,"around":11840,"2001":11841,"ber":11842,"##ject":11843,"pal":11844,"##ams":11845,"##yr":11846,"##ma":11847,"##na":11848,"water":11849,"great":11850,"cath":11851,"##wood":11852,"texas":11853,"seas":11854,"mat":11855,"compet":11856,"super":11857,"flor":11858,"lang":11859,"##olic":11860,"##tar":11861,"##ounc":11862,"##quar":11863,"last":11864,"##la":11865,"secondary":11866,"inv":11867,"fiction":11868,"##aint":11869,"##ston":11870,"##ya":11871,"peak":11872,"##elf":11873,"munic":11874,"municipal":11875,"##the":11876,"##writer":11877,"##ather":11878,"champion":11879,"kar":11880,"##ven":11881,"day":11882,"newsp":11883,"##bs":11884,"##ief":11885,"oly":11886,"gold":11887,"hot":11888,"natural":11889,"##ones":11890,"china":11891,"ent":11892,"green":11893,"bill":11894,"##aves":11895,"ren":11896,"how":11897,"##ured":11898,"##ha":11899,"back":11900,"##ially":11901,"disc":11902,"wash":11903,"formerly":11904,"ze":11905,"##ists":11906,"franc":11907,"##dle":11908,"##ex":11909,"cover":11910,"catholic":11911,"##ylvania":11912,"side":11913,"exp":11914,"union":11915,"offic":11916,"release":11917,"fac":11918,"colum":11919,"aut":11920,"##ily":11921,"occ":11922,"dis":11923,"##bor":11924,"stars":11925,"virgin":11926,"includes":11927,"1999":11928,"described":11929,"##ering":11930,"##west":11931,"##ii":11932,"penns":11933,"oh":11934,"185":11935,"net":11936,"##ats":11937,"##ink":11938,"##itar":11939,"li":11940,"##vision":11941,"local":11942,"line":11943,"bul":11944,"pennsylvania":11945,"##yer":11946,"tor":11947,"community":11948,"miss":11949,"late":11950,"##me":11951,"indust":11952,"corpor":11953,"mary":11954,"##ij":11955,"george":11956,"sold":11957,"tropical":11958,"##ength":11959,"complet":11960,"vers":11961,"headquar":11962,"son":11963,"thom":11964,"david":11965,"##aland":11966,"##field":11967,"##ified":11968,"##etts":11969,"cult":11970,"washington":11971,"##ota":11972,"##iety":11973,"ke":11974,"bur":11975,"development":11976,"##ful":11977,"resear":11978,"cam":11979,"##rick":11980,"mel":11981,"##achus":11982,"##atives":11983,"lit":11984,"vict":11985,"sa":11986,"base":11987,"paul":11988,"##ael":11989,"massachus":11990,"mad":11991,"massachusetts":11992,"1991":11993,"##ental":11994,"##ani":11995,"market":11996,"1998":11997,"wom":11998,"tall":11999,"success":12000,"##ago":12001,"length":12002,"campus":12003,"full":12004,"post":12005,"musician":12006,"operated":12007,"distribut":12008,"##ona":12009,"cast":12010,"production":12011,"snail":12012,"again":12013,"mac":12014,"##ett":12015,"gir":12016,"songwriter":12017,"rece":12018,"brown":12019,"office":12020,"doc":12021,"langu":12022,"robert":12023,"##aining":12024,"trad":12025,"id":12026,"romania":12027,"newspaper":12028,"##co":12029,"mountains":12030,"see":12031,"democratic":12032,"##nes":12033,"ever":12034,"hal":12035,"sign":12036,"research":12037,"31":12038,"valley":12039,"cit":12040,"elected":12041,"television":12042,"rad":12043,"hor":12044,"##ets":12045,"summer":12046,"africa":12047,"##uel":12048,"commonly":12049,"olymp":12050,"##ret":12051,"while":12052,"##ino":12053,"##ected":12054,"##ney":12055,"1996":12056,"##akes":12057,"rh":12058,"##eland":12059,"mart":12060,"1997":12061,"##yd":12062,"##ella":12063,"republic":12064,"##ling":12065,"##tered":12066,"##ais":12067,"louis":12068,"1992":12069,"##ograph":12070,"##ari":12071,"##itect":12072,"following":12073,"metres":12074,"ohio":12075,"architect":12076,"hosp":12077,"##ls":12078,"##gian":12079,"tre":12080,"representatives":12081,"lat":12082,"previously":12083,"guitar":12084,"arts":12085,"squ":12086,"##ries":12087,"hum":12088,"books":12089,"wil":12090,"##reg":12091,"director":12092,"hospital":12093,"##ada":12094,"review":12095,"children":12096,"depart":12097,"popular":12098,"hall":12099,"technology":12100,"zealand":12101,"du":12102,"emp":12103,"power":12104,"aff":12105,"mark":12106,"##ush":12107,"playing":12108,"##ould":12109,"grand":12110,"low":12111,"chart":12112,"1995":12113,"municipality":12114,"##ps":12115,"swed":12116,"like":12117,"##itor":12118,"##ces":12119,"##apt":12120,"1993":12121,"conn":12122,"##burg":12123,"you":12124,"1990":12125,"turk":12126,"marine":12127,"##iated":12128,"##sk":12129,"##ald":12130,"mexico":12131,"1988":12132,"virginia":12133,"mu":12134,"##ined":12135,"level":12136,"1989":12137,"don":12138,"##get":12139,"commer":12140,"di":12141,"include":12142,"tour":12143,"##ically":12144,"##hel":12145,"plants":12146,"non":12147,"sound":12148,"##zer":12149,"##ency":12150,"forests":12151,"##ano":12152,"##alth":12153,"##ences":12154,"##anch":12155,"spanish":12156,"##rol":12157,"iss":12158,"##amb":12159,"1994":12160,"##iving":12161,"leaves":12162,"1945":12163,"southe":12164,"##azz":12165,"gradu":12166,"middle":12167,"##unk":12168,"100":12169,"vide":12170,"albums":12171,"carol":12172,"mult":12173,"fre":12174,"##work":12175,"subt":12176,"sport":12177,"flow":12178,"rest":12179,"##eph":12180,"1986":12181,"arg":12182,"france":12183,"him":12184,"##iana":12185,"1985":12186,"##ually":12187,"##eded":12188,"began":12189,"##ger":12190,"1987":12191,"institute":12192,"winn":12193,"1984":12194,"florida":12195,"cop":12196,"##rew":12197,"##onom":12198,"miles":12199,"lu":12200,"victor":12201,"jack":12202,"##par":12203,"week":12204,"fed":12205,"organ":12206,"##ored":12207,"##ois":12208,"##era":12209,"##ta":12210,"1983":12211,"assemb":12212,"conc":12213,"##usk":12214,"movie":12215,"tree":12216,"stand":12217,"184":12218,"corporation":12219,"1982":12220,"dou":12221,"jos":12222,"hand":12223,"brother":12224,"##ula":12225,"1980":12226,"opened":12227,"light":12228,"language":12229,"producer":12230,"dest":12231,"ye":12232,"##ended":12233,"dif":12234,"##aking":12235,"##ola":12236,"refer":12237,"bi":12238,"angel":12239,"##dom":12240,"##aker":12241,"gar":12242,"##be":12243,"##wer":12244,"blue":12245,"feet":12246,"sar":12247,"##ador":12248,"shr":12249,"serves":12250,"association":12251,"right":12252,"##ize":12253,"added":12254,"commissioned":12255,"scott":12256,"tal":12257,"det":12258,"michael":12259,"##ison":12260,"consider":12261,"##cept":12262,"##ved":12263,"dut":12264,"##hest":12265,"moll":12266,"##ument":12267,"works":12268,"er":12269,"type":12270,"##gar":12271,"final":12272,"pur":12273,"governor":12274,"gast":12275,"##ble":12276,"tom":12277,"serving":12278,"1979":12279,"##ander":12280,"open":12281,"stories":12282,"fourth":12283,"win":12284,"prem":12285,"situ":12286,"hav":12287,"parish":12288,"thomas":12289,"der":12290,"grows":12291,"##gy":12292,"big":12293,"charles":12294,"broad":12295,"pit":12296,"hen":12297,"sam":12298,"##ently":12299,"games":12300,"centre":12301,"usa":12302,"frank":12303,"fif":12304,"kr":12305,"love":12306,"christian":12307,"board":12308,"contains":12309,"assembly":12310,"rac":12311,"ten":12312,"##antic":12313,"gun":12314,"order":12315,"##ning":12316,"##ges":12317,"##oth":12318,"kore":12319,"limited":12320,"site":12321,"1981":12322,"charac":12323,"championship":12324,"##ropod":12325,"hard":12326,"ob":12327,"40":12328,"project":12329,"mm":12330,"contin":12331,"##ius":12332,"death":12333,"los":12334,"cro":12335,"pos":12336,"ontar":12337,"##reen":12338,"metal":12339,"ontario":12340,"chief":12341,"pac":12342,"richard":12343,"bord":12344,"department":12345,"compil":12346,"##side":12347,"jazz":12348,"media":12349,"##isl":12350,"collection":12351,"subtropical":12352,"hon":12353,"place":12354,"##ping":12355,"sant":12356,"##bec":12357,"##ellow":12358,"columbia":12359,"started":12360,"fore":12361,"cle":12362,"##omer":12363,"##ala":12364,"##ado":12365,"railway":12366,"republican":12367,"##aus":12368,"##nam":12369,"seat":12370,"##ena":12371,"tem":12372,"division":12373,"times":12374,"african":12375,"50":12376,"ol":12377,"situated":12378,"##igan":12379,"game":12380,"deg":12381,"foc":12382,"orch":12383,"fest":12384,"civ":12385,"##aff":12386,"1978":12387,"ant":12388,"##yll":12389,"kingdom":12390,"cir":12391,"batt":12392,"gastropod":12393,"atl":12394,"mic":12395,"##ained":12396,"1976":12397,"sel":12398,"show":12399,"##oma":12400,"northe":12401,"video":12402,"##ism":12403,"often":12404,"mang":12405,"##hi":12406,"program":12407,"183":12408,"season":12409,"##berg":12410,"##itional":12411,"1972":12412,"counc":12413,"flows":12414,"nar":12415,"##oon":12416,"fer":12417,"spring":12418,"##ishing":12419,"commerc":12420,"bol":12421,"ham":12422,"carolina":12423,"##lands":12424,"##asc":12425,"ur":12426,"films":12427,"cm":12428,"princ":12429,"dan":12430,"motor":12431,"##board":12432,"##ora":12433,"prot":12434,"dev":12435,"##ody":12436,"creek":12437,"##cher":12438,"ha":12439,"construction":12440,"sand":12441,"##erson":12442,"rap":12443,"heav":12444,"mr":12445,"##ple":12446,"focus":12447,"free":12448,"considered":12449,"tracks":12450,"1977":12451,"##ible":12452,"brand":12453,"memb":12454,"perfor":12455,"festival":12456,"##ract":12457,"##ensis":12458,"##bu":12459,"1973":12460,"social":12461,"voc":12462,"received":12463,"somet":12464,"left":12465,"locomot":12466,"age":12467,"##ua":12468,"engineering":12469,"##ped":12470,"thre":12471,"exper":12472,"##ker":12473,"wales":12474,"orchid":12475,"ill":12476,"transport":12477,"members":12478,"saint":12479,"##onia":12480,"hop":12481,"##atus":12482,"spe":12483,"##ye":12484,"hms":12485,"##har":12486,"poet":12487,"among":12488,"##olk":12489,"##of":12490,"differ":12491,"field":12492,"##istan":12493,"publis":12494,"os":12495,"wat":12496,"1975":12497,"##elling":12498,"senate":12499,"##iod":12500,"use":12501,"##augh":12502,"litt":12503,"submar":12504,"shar":12505,"created":12506,"##omb":12507,"##asy":12508,"very":12509,"highest":12510,"##anth":12511,"report":12512,"men":12513,"hotel":12514,"##ively":12515,"##ume":12516,"version":12517,"sun":12518,"management":12519,"##ali":12520,"mollusk":12521,"##aur":12522,"##urer":12523,"##oles":12524,"##ockey":12525,"representing":12526,"##ita":12527,"chic":12528,"medical":12529,"electric":12530,"##day":12531,"greek":12532,"council":12533,"alth":12534,"color":12535,"##idi":12536,"1970":12537,"1974":12538,"fle":12539,"against":12540,"real":12541,"areas":12542,"philipp":12543,"arab":12544,"political":12545,"hy":12546,"various":12547,"baseball":12548,"##roll":12549,"circ":12550,"##iny":12551,"educational":12552,"oldest":12553,"loss":12554,"asia":12555,"retired":12556,"mur":12557,"although":12558,"argent":12559,"wide":12560,"civil":12561,"included":12562,"flowers":12563,"legisl":12564,"ul":12565,"pen":12566,"european":12567,"lt":12568,"##med":12569,"pict":12570,"commercial":12571,"feature":12572,"dar":12573,"corn":12574,"alex":12575,"1968":12576,"##inct":12577,"##eth":12578,"peter":12579,"rob":12580,"citation":12581,"pacific":12582,"soft":12583,"equ":12584,"##ware":12585,"conf":12586,"bor":12587,"1971":12588,"##ria":12589,"olympics":12590,"den":12591,"##ages":12592,"gro":12593,"fant":12594,"these":12595,"vess":12596,"##wan":12597,"threat":12598,"fam":12599,"##ots":12600,"health":12601,"##ette":12602,"joseph":12603,"1969":12604,"hit":12605,"pain":12606,"##ape":12607,"##ura":12608,"sat":12609,"dam":12610,"##ky":12611,"news":12612,"compilation":12613,"million":12614,"month":12615,"##ided":12616,"society":12617,"laid":12618,"##mark":12619,"##ient":12620,"acqu":12621,"##gia":12622,"ko":12623,"##eter":12624,"needed":12625,"fall":12626,"##ga":12627,"35":12628,"cd":12629,"##ady":12630,"represented":12631,"good":12632,"irish":12633,"mah":12634,"haw":12635,"mix":12636,"offers":12637,"##va":12638,"cross":12639,"steam":12640,"little":12641,"oce":12642,"crit":12643,"subs":12644,"1944":12645,"##ennial":12646,"quebec":12647,"illin":12648,"chicago":12649,"##western":12650,"headquartered":12651,"pan":12652,"role":12653,"cur":12654,"destro":12655,"editor":12656,"ver":12657,"period":12658,"repl":12659,"##ged":12660,"completed":12661,"cru":12662,"hockey":12663,"illinois":12664,"each":12665,"181":12666,"turn":12667,"dark":12668,"border":12669,"##ror":12670,"present":12671,"##hip":12672,"point":12673,"##oir":12674,"##ars":12675,"scot":12676,"##ban":12677,"intro":12678,"square":12679,"products":12680,"anim":12681,"##rain":12682,"academic":12683,"##de":12684,"ros":12685,"swedish":12686,"##arily":12687,"elev":12688,"ben":12689,"##osed":12690,"singles":12691,"##iidae":12692,"1943":12693,"across":12694,"names":12695,"support":12696,"press":12697,"mos":12698,"height":12699,"women":12700,"modern":12701,"ps":12702,"threatened":12703,"##ko":12704,"##ersey":12705,"reserv":12706,"federal":12707,"##oming":12708,"document":12709,"secret":12710,"##ments":12711,"adv":12712,"##itary":12713,"perform":12714,"seven":12715,"round":12716,"ins":12717,"fem":12718,"ho":12719,"shrub":12720,"##urs":12721,"them":12722,"syn":12723,"belong":12724,"##ca":12725,"hung":12726,"##ops":12727,"##overs":12728,"##awa":12729,"##ued":12730,"##acher":12731,"ly":12732,"tel":12733,"fort":12734,"cz":12735,"##iff":12736,"##ode":12737,"sometimes":12738,"michigan":12739,"##ipl":12740,"1942":12741,"edward":12742,"##enue":12743,"moist":12744,"ku":12745,"anth":12746,"actor":12747,"ice":12748,"##aster":12749,"##ks":12750,"vis":12751,"comic":12752,"##ense":12753,"1964":12754,"jud":12755,"182":12756,"liter":12757,"tot":12758,"##ecut":12759,"##cl":12760,"tower":12761,"##gl":12762,"different":12763,"struct":12764,"vi":12765,"dutch":12766,"##arian":12767,"##ami":12768,"medal":12769,"composer":12770,"ireland":12771,"held":12772,"van":12773,"1967":12774,"grass":12775,"way":12776,"hous":12777,"sem":12778,"crater":12779,"primarily":12780,"hong":12781,"kong":12782,"eight":12783,"##my":12784,"earl":12785,"chap":12786,"henry":12787,"##den":12788,"infl":12789,"adapt":12790,"partic":12791,"ut":12792,"election":12793,"famous":12794,"cric":12795,"accord":12796,"formed":12797,"network":12798,"##han":12799,"recording":12800,"##ini":12801,"##za":12802,"entertain":12803,"econom":12804,"rug":12805,"##itions":12806,"##ansas":12807,"##aka":12808,"consists":12809,"##ba":12810,"##iger":12811,"kent":12812,"islands":12813,"solo":12814,"arr":12815,"##ugu":12816,"##ches":12817,"##oor":12818,"ker":12819,"theat":12820,"parl":12821,"beg":12822,"father":12823,"da":12824,"cost":12825,"ships":12826,"##hood":12827,"##tr":12828,"1965":12829,"manga":12830,"32":12831,"mall":12832,"featuring":12833,"worked":12834,"##ils":12835,"edition":12836,"jersey":12837,"##jan":12838,"##adu":12839,"nep":12840,"##ios":12841,"##outh":12842,"tenn":12843,"##lex":12844,"##ogn":12845,"liber":12846,"primary":12847,"fly":12848,"##ature":12849,"performan":12850,"guitarist":12851,"fifth":12852,"perennial":12853,"ocean":12854,"##app":12855,"grade":12856,"submarine":12857,"init":12858,"##ym":12859,"##imet":12860,"due":12861,"constructed":12862,"##ude":12863,"proper":12864,"court":12865,"manufacturer":12866,"gard":12867,"angeles":12868,"##ally":12869,"stage":12870,"cab":12871,"##ached":12872,"##mit":12873,"##ization":12874,"wr":12875,"italy":12876,"lower":12877,"1962":12878,"dail":12879,"tar":12880,"yellow":12881,"1966":12882,"ltd":12883,"oreg":12884,"noted":12885,"fantasy":12886,"plat":12887,"##town":12888,"died":12889,"##inted":12890,"mem":12891,"##ells":12892,"oregon":12893,"invest":12894,"military":12895,"smith":12896,"front":12897,"##eder":12898,"sixth":12899,"wall":12900,"musical":12901,"georgia":12902,"moved":12903,"gh":12904,"ray":12905,"throughout":12906,"illust":12907,"##ask":12908,"jr":12909,"##no":12910,"tamil":12911,"##amed":12912,"station":12913,"exist":12914,"bir":12915,"growing":12916,"pu":12917,"provides":12918,"herb":12919,"grades":12920,"##water":12921,"rang":12922,"developed":12923,"having":12924,"bird":12925,"##iec":12926,"ca":12927,"gener":12928,"1960":12929,"transl":12930,"##ility":12931,"neigh":12932,"ra":12933,"township":12934,"##atic":12935,"surv":12936,"##ants":12937,"artists":12938,"model":12939,"night":12940,"compan":12941,"1963":12942,"cricket":12943,"##back":12944,"2014":12945,"though":12946,"screen":12947,"##uter":12948,"institution":12949,"half":12950,"##ati":12951,"trav":12952,"##anian":12953,"##wegian":12954,"altern":12955,"##ender":12956,"norwegian":12957,"chang":12958,"##rial":12959,"firm":12960,"parliam":12961,"event":12962,"leader":12963,"##ophyll":12964,"northwest":12965,"boat":12966,"senior":12967,"parliament":12968,"according":12969,"##uit":12970,"##ов":12971,"mayor":12972,"ak":12973,"leading":12974,"southeast":12975,"lib":12976,"##mon":12977,"competed":12978,"1959":12979,"##agon":12980,"rank":12981,"official":12982,"1956":12983,"farm":12984,"connect":12985,"daily":12986,"premier":12987,"1961":12988,"##ilar":12989,"stone":12990,"fri":12991,"parts":12992,"winning":12993,"ot":12994,"character":12995,"##ny":12996,"##mond":12997,"software":12998,"stock":12999,"stem":13000,"##enth":13001,"##50":13002,"##icles":13003,"buildings":13004,"resp":13005,"lie":13006,"acquired":13007,"contribut":13008,"ve":13009,"##bai":13010,"entertainment":13011,"##ique":13012,"180":13013,"##ja":13014,"##rated":13015,"bud":13016,"##ted":13017,"sports":13018,"box":13019,"revival":13020,"operates":13021,"##iro":13022,"##atory":13023,"minnes":13024,"wro":13025,"##iaceae":13026,"person":13027,"##iy":13028,"traditional":13029,"featured":13030,"abb":13031,"minnesota":13032,"hind":13033,"tv":13034,"inform":13035,"living":13036,"term":13037,"##well":13038,"tak":13039,"silver":13040,"section":13041,"##aska":13042,"subsidi":13043,"cup":13044,"##isco":13045,"tim":13046,"painter":13047,"dry":13048,"step":13049,"##iding":13050,"kal":13051,"command":13052,"glob":13053,"##uz":13054,"appeared":13055,"wid":13056,"dig":13057,"sir":13058,"##omp":13059,"promin":13060,"##ych":13061,"publishing":13062,"1957":13063,"turkey":13064,"above":13065,"historical":13066,"##vin":13067,"draft":13068,"documentary":13069,"active":13070,"##rum":13071,"albert":13072,"ground":13073,"pak":13074,"lee":13075,"##eds":13076,"actress":13077,"castle":13078,"paris":13079,"##ises":13080,"1958":13081,"brick":13082,"##ological":13083,"##buil":13084,"##ites":13085,"referred":13086,"1953":13087,"drum":13088,"bass":13089,"radio":13090,"##pr":13091,"martin":13092,"indones":13093,"rugby":13094,"aud":13095,"comb":13096,"related":13097,"##ves":13098,"bat":13099,"fire":13100,"##olut":13101,"##oy":13102,"1955":13103,"ukrain":13104,"much":13105,"hun":13106,"roles":13107,"##iller":13108,"ecu":13109,"##itte":13110,"introduc":13111,"few":13112,"wild":13113,"##ends":13114,"brook":13115,"army":13116,"1941":13117,"fair":13118,"bridge":13119,"successful":13120,"mainly":13121,"prior":13122,"##ting":13123,"sour":13124,"ah":13125,"degree":13126,"girls":13127,"total":13128,"##adesh":13129,"action":13130,"ecuador":13131,"60":13132,"financ":13133,"chair":13134,"affil":13135,"36":13136,"wind":13137,"still":13138,"industry":13139,"##gress":13140,"emplo":13141,"##icle":13142,"1917":13143,"sus":13144,"1948":13145,"junior":13146,"teacher":13147,"norway":13148,"vessel":13149,"##other":13150,"1946":13151,"1952":13152,"southwest":13153,"33":13154,"##ications":13155,"##ised":13156,"fish":13157,"phot":13158,"advent":13159,"companies":13160,"bab":13161,"sov":13162,"elevation":13163,"ken":13164,"peer":13165,"##cer":13166,"pron":13167,"ram":13168,"scient":13169,"##ان":13170,"electron":13171,"##ielder":13172,"hu":13173,"covers":13174,"##gs":13175,"##hem":13176,"scottish":13177,"bulb":13178,"##ophyllum":13179,"lost":13180,"training":13181,"similar":13182,"##yan":13183,"bon":13184,"##da":13185,"raj":13186,"##ered":13187,"aer":13188,"renamed":13189,"philippines":13190,"would":13191,"##itz":13192,"##adel":13193,"centimet":13194,"took":13195,"1954":13196,"##anda":13197,"upper":13198,"##owa":13199,"##vers":13200,"##ply":13201,"shop":13202,"jon":13203,"##olf":13204,"carl":13205,"##ming":13206,"##hens":13207,"ran":13208,"les":13209,"##aria":13210,"committe":13211,"czech":13212,"##airs":13213,"glac":13214,"pomer":13215,"##ien":13216,"nomin":13217,"malays":13218,"rout":13219,"##mad":13220,"avenue":13221,"alt":13222,"1950":13223,"##och":13224,"##wor":13225,"constitu":13226,"iv":13227,"##aching":13228,"ss":13229,"subur":13230,"bac":13231,"polish":13232,"russia":13233,"secretary":13234,"heart":13235,"principal":13236,"ok":13237,"##ried":13238,"##abor":13239,"complex":13240,"beet":13241,"1940":13242,"avail":13243,"##fielder":13244,"northeast":13245,"##lor":13246,"finn":13247,"howe":13248,"##wa":13249,"##bury":13250,"import":13251,"online":13252,"##ause":13253,"bow":13254,"hills":13255,"##ness":13256,"bang":13257,"##str":13258,"francisco":13259,"return":13260,"##ective":13261,"1947":13262,"sav":13263,"##ocese":13264,"##bian":13265,"boys":13266,"fact":13267,"appo":13268,"ref":13269,"##ste":13270,"1949":13271,"expl":13272,"student":13273,"passeng":13274,"legislative":13275,"fab":13276,"pap":13277,"store":13278,"##ias":13279,"recogn":13280,"##ublin":13281,"ball":13282,"##aut":13283,"##ores":13284,"card":13285,"##arp":13286,"human":13287,"fig":13288,"##nd":13289,"boston":13290,"179":13291,"##ila":13292,"chain":13293,"mater":13294,"higher":13295,"distributed":13296,"##اد":13297,"45":13298,"##wide":13299,"replac":13300,"introduced":13301,"maryland":13302,"host":13303,"##spec":13304,"available":13305,"##ima":13306,"cas":13307,"##zy":13308,"novels":13309,"awards":13310,"sab":13311,"congress":13312,"dre":13313,"##aly":13314,"horror":13315,"##edited":13316,"colorado":13317,"what":13318,"publisher":13319,"reviewed":13320,"beh":13321,"1951":13322,"##olia":13323,"restaur":13324,"fc":13325,"##vd":13326,"##famil":13327,"close":13328,"studies":13329,"body":13330,"did":13331,"subsidiary":13332,"queens":13333,"fur":13334,"conserv":13335,"heavy":13336,"gal":13337,"less":13338,"1939":13339,"better":13340,"execut":13341,"##istry":13342,"billboard":13343,"came":13344,"making":13345,"##onto":13346,"vocal":13347,"bh":13348,"spain":13349,"soviet":13350,"bad":13351,"become":13352,"atlantic":13353,"nick":13354,"##rect":13355,"##olution":13356,"bell":13357,"cert":13358,"victoria":13359,"jim":13360,"##iate":13361,"34":13362,"neighbor":13363,"surr":13364,"butter":13365,"mostly":13366,"headquarters":13367,"cin":13368,"##ising":13369,"cer":13370,"##erous":13371,"##ck":13372,"esc":13373,"##une":13374,"notable":13375,"##sc":13376,"##omm":13377,"##ivid":13378,"battle":13379,"mir":13380,"sevent":13381,"wel":13382,"structure":13383,"key":13384,"snails":13385,"##inet":13386,"ath":13387,"##ox":13388,"maz":13389,"##ably":13390,"korean":13391,"wars":13392,"countries":13393,"appl":13394,"paper":13395,"airline":13396,"##phia":13397,"arct":13398,"feed":13399,"founder":13400,"ell":13401,"master":13402,"phys":13403,"went":13404,"gil":13405,"comics":13406,"wisc":13407,"##family":13408,"god":13409,"whose":13410,"##span":13411,"lawyer":13412,"committee":13413,"lives":13414,"silent":13415,"wrote":13416,"bulbophyllum":13417,"##fly":13418,"##onsin":13419,"nepal":13420,"reported":13421,"colon":13422,"dor":13423,"wisconsin":13424,"tai":13425,"##anz":13426,"paint":13427,"##men":13428,"bern":13429,"influ":13430,"##ounced":13431,"ta":13432,"ven":13433,"santa":13434,"##ought":13435,"##head":13436,"working":13437,"spons":13438,"##ography":13439,"##oe":13440,"greater":13441,"philadel":13442,"ariz":13443,"##ership":13444,"##iple":13445,"toronto":13446,"undergr":13447,"##aph":13448,"hits":13449,"##eman":13450,"##aya":13451,"girl":13452,"37":13453,"die":13454,"prominent":13455,"adm":13456,"medium":13457,"##ram":13458,"##rug":13459,"events":13460,"weekly":13461,"retail":13462,"charl":13463,"brothers":13464,"however":13465,"sciences":13466,"oak":13467,"philadelphia":13468,"enc":13469,"basket":13470,"##ute":13471,"sri":13472,"toget":13473,"representative":13474,"peru":13475,"##play":13476,"resident":13477,"together":13478,"individ":13479,"destroyer":13480,"self":13481,"eff":13482,"ash":13483,"fresh":13484,"mob":13485,"##ids":13486,"activ":13487,"insp":13488,"separ":13489,"food":13490,"cla":13491,"arizona":13492,"et":13493,"hom":13494,"##gen":13495,"veh":13496,"habitats":13497,"piny":13498,"sequ":13499,"affiliated":13500,"louisiana":13501,"rivers":13502,"wingspan":13503,"##burgh":13504,"##most":13505,"1936":13506,"##osa":13507,"signed":13508,"gram":13509,"mcc":13510,"##ucky":13511,"systems":13512,"enroll":13513,"jeff":13514,"annual":13515,"38":13516,"hip":13517,"##acy":13518,"beng":13519,"wife":13520,"material":13521,"jul":13522,"##imb":13523,"##aries":13524,"##icated":13525,"##illa":13526,"liberal":13527,"any":13528,"moths":13529,"42":13530,"##eg":13531,"##onym":13532,"##yard":13533,"andrew":13534,"##porary":13535,"prime":13536,"pinyin":13537,"##ects":13538,"joined":13539,"pod":13540,"##aki":13541,"financial":13542,"##uten":13543,"copies":13544,"prop":13545,"autom":13546,"##ensive":13547,"programs":13548,"pian":13549,"woman":13550,"read":13551,"##wings":13552,"boy":13553,"##olds":13554,"information":13555,"placed":13556,"##tic":13557,"##ults":13558,"because":13559,"graduate":13560,"female":13561,"fleet":13562,"surround":13563,"##rey":13564,"hungarian":13565,"##cast":13566,"roof":13567,"larv":13568,"captain":13569,"queen":13570,"position":13571,"dvd":13572,"patrol":13573,"nev":13574,"19th":13575,"variety":13576,"##ava":13577,"##akh":13578,"bron":13579,"##rich":13580,"space":13581,"contract":13582,"plan":13583,"azer":13584,"1918":13585,"fun":13586,"property":13587,"mean":13588,"individual":13589,"crime":13590,"ru":13591,"ce":13592,"libr":13593,"basketball":13594,"##idence":13595,"pictures":13596,"contem":13597,"mexican":13598,"reached":13599,"gall":13600,"##oul":13601,"##estan":13602,"operating":13603,"reservoir":13604,"branch":13605,"bob":13606,"naval":13607,"scotland":13608,"today":13609,"cultiv":13610,"##oo":13611,"jac":13612,"downtown":13613,"daniel":13614,"inf":13615,"##ales":13616,"summit":13617,"composed":13618,"fa":13619,"##tor":13620,"purch":13621,"minor":13622,"cant":13623,"##bridge":13624,"jer":13625,"led":13626,"azerbai":13627,"od":13628,"niger":13629,"medic":13630,"matt":13631,"##win":13632,"roll":13633,"rod":13634,"##inea":13635,"stores":13636,"serbian":13637,"1919":13638,"senator":13639,"brazilian":13640,"39":13641,"cape":13642,"som":13643,"offices":13644,"malaysia":13645,"tenness":13646,"luc":13647,"ox":13648,"##ي‎":13649,"seasons":13650,"amb":13651,"folk":13652,"ach":13653,"deep":13654,"80":13655,"##vir":13656,"##oms":13657,"##je":13658,"tennessee":13659,"fern":13660,"1938":13661,"rain":13662,"sax":13663,"foundation":13664,"appointed":13665,"##iven":13666,"digital":13667,"larvae":13668,"inn":13669,"attended":13670,"##ea":13671,"others":13672,"collabor":13673,"test":13674,"##dy":13675,"arabic":13676,"syd":13677,"theatre":13678,"psych":13679,"glacier":13680,"cand":13681,"jackson":13682,"locomotive":13683,"past":13684,"quar":13685,"industrial":13686,"nine":13687,"##ji":13688,"every":13689,"lived":13690,"1937":13691,"##ycle":13692,"##odz":13693,"##hib":13694,"##asht":13695,"##ining":13696,"staff":13697,"surf":13698,"sponsored":13699,"swit":13700,"##imed":13701,"block":13702,"mixed":13703,"operations":13704,"moon":13705,"bos":13706,"dom":13707,"##ux":13708,"1928":13709,"jean":13710,"##orpor":13711,"cra":13712,"indonesia":13713,"entered":13714,"##ouri":13715,"ark":13716,"ast":13717,"worldwide":13718,"midfielder":13719,"performance":13720,"foreign":13721,"territ":13722,"another":13723,"ba":13724,"##hs":13725,"##kee":13726,"##jo":13727,"standard":13728,"##ned":13729,"1980s":13730,"distribution":13731,"##tu":13732,"airport":13733,"##tim":13734,"anton":13735,"pred":13736,"pot":13737,"specializ":13738,"ess":13739,"southeastern":13740,"addition":13741,"lieuten":13742,"##ez":13743,"view":13744,"##rd":13745,"1930":13746,"pup":13747,"neighborhood":13748,"publication":13749,"lieutenant":13750,"##house":13751,"iron":13752,"dub":13753,"kir":13754,"saw":13755,"##xt":13756,"chile":13757,"diam":13758,"mother":13759,"##ances":13760,"1934":13761,"frame":13762,"##ump":13763,"web":13764,"promot":13765,"access":13766,"##val":13767,"technical":13768,"pract":13769,"fro":13770,"contemporary":13771,"70":13772,"fund":13773,"lear":13774,"##ourne":13775,"waters":13776,"cargo":13777,"##don":13778,"##lywood":13779,"korea":13780,"sydney":13781,"oil":13782,"##mont":13783,"executive":13784,"athlet":13785,"##rian":13786,"jones":13787,"##eli":13788,"taiwan":13789,"trade":13790,"1935":13791,"leaf":13792,"steel":13793,"lin":13794,"##arm":13795,"##ken":13796,"consist":13797,"invol":13798,"rose":13799,"##otyp":13800,"origin":13801,"alternative":13802,"via":13803,"usually":13804,"##wick":13805,"##aped":13806,"element":13807,"##icut":13808,"dipl":13809,"##ira":13810,"arth":13811,"1920":13812,"sister":13813,"dj":13814,"golden":13815,"blues":13816,"##ui":13817,"##0000":13818,"train":13819,"counties":13820,"dun":13821,"lank":13822,"cut":13823,"winter":13824,"global":13825,"1929":13826,"latin":13827,"passenger":13828,"colom":13829,"41":13830,"race":13831,"##nia":13832,"maine":13833,"volume":13834,"designated":13835,"##real":13836,"force":13837,"ded":13838,"##ending":13839,"grey":13840,"important":13841,"queensland":13842,"kerman":13843,"isra":13844,"20th":13845,"nevada":13846,"##mas":13847,"iowa":13848,"viet":13849,"1970s":13850,"missouri":13851,"kentucky":13852,"mission":13853,"clos":13854,"studied":13855,"##kh":13856,"basin":13857,"##iter":13858,"kenn":13859,"##itan":13860,"location":13861,"##iat":13862,"organization":13863,"##ɔˈ":13864,"mile":13865,"##ema":13866,"forward":13867,"pun":13868,"stan":13869,"log":13870,"upon":13871,"##nan":13872,"##agh":13873,"mrs":13874,"##ote":13875,"##ika":13876,"shel":13877,"##cent":13878,"never":13879,"follows":13880,"rog":13881,"##bus":13882,"constituency":13883,"##enez":13884,"pakistan":13885,"##iser":13886,"study":13887,"##ector":13888,"cust":13889,"clark":13890,"professor":13891,"pse":13892,"locomotives":13893,"subfamily":13894,"make":13895,"journalist":13896,"##باد":13897,"volc":13898,"##ighter":13899,"houses":13900,"administration":13901,"rud":13902,"recordings":13903,"ic":13904,"ny":13905,"##road":13906,"connecticut":13907,"studios":13908,"slov":13909,"##ela":13910,"attack":13911,"nominated":13912,"domin":13913,"##sequ":13914,"##nat":13915,"coastal":13916,"ts":13917,"1912":13918,"championships":13919,"double":13920,"##ti":13921,"pil":13922,"computer":13923,"scientific":13924,"mand":13925,"initially":13926,"tro":13927,"43":13928,"##iga":13929,"meet":13930,"agric":13931,"44":13932,"1931":13933,"##opter":13934,"mach":13935,"##hl":13936,"##mouth":13937,"chairman":13938,"##ato":13939,"seventh":13940,"##cz":13941,"performed":13942,"az":13943,"ll":13944,"sz":13945,"pseud":13946,"lew":13947,"carr":13948,"prepar":13949,"lor":13950,"##ан":13951,"envir":13952,"marc":13953,"1960s":13954,"source":13955,"vietnam":13956,"cub":13957,"##asan":13958,"butterfly":13959,"aster":13960,"kur":13961,"let":13962,"rub":13963,"diocese":13964,"prize":13965,"generally":13966,"jose":13967,"issue":13968,"daugh":13969,"southwestern":13970,"dw":13971,"bear":13972,"guinea":13973,"indiana":13974,"williams":13975,"existence":13976,"anc":13977,"##eck":13978,"##ips":13979,"word":13980,"agricult":13981,"environ":13982,"twent":13983,"lakes":13984,"sail":13985,"earlier":13986,"shopping":13987,"era":13988,"##uch":13989,"##bourne":13990,"##erto":13991,"tay":13992,"chann":13993,"##ran":13994,"##yed":13995,"##hedral":13996,"jew":13997,"qual":13998,"na":13999,"meaning":14000,"runs":14001,"thir":14002,"fal":14003,"##ns":14004,"imper":14005,"graduated":14006,"1927":14007,"argentina":14008,"##stone":14009,"1924":14010,"##bi":14011,"architecture":14012,"elementary":14013,"1914":14014,"##ич":14015,"##inder":14016,"##arch":14017,"thriller":14018,"por":14019,"kansas":14020,"fut":14021,"once":14022,"opp":14023,"merc":14024,"1916":14025,"cathedral":14026,"##omat":14027,"days":14028,"croat":14029,"route":14030,"bed":14031,"danish":14032,"vent":14033,"beach":14034,"##aches":14035,"malay":14036,"barb":14037,"##lam":14038,"racing":14039,"restaurant":14040,"pul":14041,"webs":14042,"stephen":14043,"##vo":14044,"1915":14045,"beginn":14046,"kill":14047,"##ione":14048,"##orial":14049,"progress":14050,"running":14051,"library":14052,"venez":14053,"1900":14054,"##aga":14055,"extinct":14056,"48":14057,"shot":14058,"gol":14059,"##uy":14060,"facult":14061,"adapted":14062,"culture":14063,"stra":14064,"pier":14065,"adults":14066,"##kins":14067,"1925":14068,"noc":14069,"##igned":14070,"poss":14071,"1932":14072,"##band":14073,"turkish":14074,"mit":14075,"burn":14076,"holding":14077,"puerto":14078,"earth":14079,"vocalist":14080,"altit":14081,"##lar":14082,"łodz":14083,"gab":14084,"coach":14085,"##iang":14086,"1923":14087,"##gest":14088,"toky":14089,"lord":14090,"anne":14091,"dra":14092,"sier":14093,"alexander":14094,"status":14095,"covered":14096,"laur":14097,"##worth":14098,"eth":14099,"1933":14100,"writing":14101,"monthly":14102,"nether":14103,"##ience":14104,"##ipt":14105,"##building":14106,"flight":14107,"orange":14108,"chen":14109,"##oper":14110,"examp":14111,"agency":14112,"trib":14113,"illustrated":14114,"##apore":14115,"1926":14116,"mobile":14117,"goal":14118,"1921":14119,"##ni":14120,"##read":14121,"##alam":14122,"##aran":14123,"shah":14124,"kam":14125,"exc":14126,"transfer":14127,"twin":14128,"52":14129,"assist":14130,"arthur":14131,"ful":14132,"colleges":14133,"wheel":14134,"experim":14135,"generation":14136,"sr":14137,"personal":14138,"issues":14139,"##car":14140,"sex":14141,"lic":14142,"##net":14143,"ener":14144,"date":14145,"sac":14146,"titled":14147,"47":14148,"shaped":14149,"##ades":14150,"##opher":14151,"romantic":14152,"venezuel":14153,"ga":14154,"hamp":14155,"##rev":14156,"joe":14157,"myst":14158,"49":14159,"wa":14160,"ukrainian":14161,"sweden":14162,"alab":14163,"justice":14164,"bulgar":14165,"##kin":14166,"alps":14167,"##yt":14168,"buck":14169,"compris":14170,"##attle":14171,"dead":14172,"arrang":14173,"sher":14174,"simply":14175,"ford":14176,"pc":14177,"containing":14178,"judge":14179,"hindi":14180,"##athan":14181,"colombia":14182,"tank":14183,"##oz":14184,"prince":14185,"prison":14186,"next":14187,"1922":14188,"defender":14189,"##uguese":14190,"dedicated":14191,"singapore":14192,"177":14193,"owner":14194,"portuguese":14195,"ka":14196,"meth":14197,"punk":14198,"dance":14199,"spent":14200,"accr":14201,"montane":14202,"trust":14203,"##chester":14204,"guard":14205,"khor":14206,"scr":14207,"even":14208,"ton":14209,"adult":14210,"##anic":14211,"ridge":14212,"dean":14213,"##aged":14214,"leon":14215,"imperial":14216,"netherlands":14217,"##less":14218,"rais":14219,"##ogy":14220,"500":14221,"lind":14222,"##orney":14223,"capt":14224,"widely":14225,"##oud":14226,"print":14227,"unit":14228,"electronic":14229,"finnish":14230,"using":14231,"penins":14232,"las":14233,"speed":14234,"lowland":14235,"alabama":14236,"flo":14237,"johnson":14238,"ped":14239,"purchased":14240,"estate":14241,"awarded":14242,"corner":14243,"harris":14244,"conver":14245,"##ateg":14246,"46":14247,"##tle":14248,"##osh":14249,"pink":14250,"medicine":14251,"##ction":14252,"##oln":14253,"hawai":14254,"si":14255,"##onic":14256,"subsequ":14257,"revolution":14258,"mans":14259,"greatest":14260,"marsh":14261,"montreal":14262,"##ero":14263,"provinc":14264,"178":14265,"1913":14266,"quarter":14267,"affairs":14268,"pomeranian":14269,"surface":14270,"##aduate":14271,"appearance":14272,"bil":14273,"##wards":14274,"alf":14275,"mississ":14276,"tokyo":14277,"##bc":14278,"##pton":14279,"ministry":14280,"om":14281,"ron":14282,"attorney":14283,"particular":14284,"beetle":14285,"lady":14286,"secur":14287,"beginning":14288,"##una":14289,"numerous":14290,"##olis":14291,"literature":14292,"kit":14293,"serial":14294,"##here":14295,"rare":14296,"banks":14297,"##ses":14298,"##anta":14299,"youth":14300,"75":14301,"environment":14302,"gas":14303,"##right":14304,"##ules":14305,"##unciation":14306,"viol":14307,"##li":14308,"##eller":14309,"##ovian":14310,"particip":14311,"##lyn":14312,"azerbaijan":14313,"whit":14314,"argentine":14315,"##istic":14316,"hay":14317,"married":14318,"##oke":14319,"multi":14320,"##track":14321,"frig":14322,"##iki":14323,"##teen":14324,"nic":14325,"compre":14326,"##rov":14327,"northeastern":14328,"hyd":14329,"ban":14330,"##odes":14331,"naz":14332,"profit":14333,"selected":14334,"charter":14335,"dur":14336,"fast":14337,"size":14338,"berlin":14339,"comprehens":14340,"##aware":14341,"vin":14342,"##sa":14343,"##use":14344,"imm":14345,"cricketer":14346,"arctiidae":14347,"lanka":14348,"soundtrack":14349,"belonging":14350,"##hol":14351,"almost":14352,"concept":14353,"interest":14354,"##owo":14355,"grant":14356,"sequel":14357,"selling":14358,"ال":14359,"##ases":14360,"1911":14361,"##ift":14362,"1990s":14363,"exch":14364,"##kn":14365,"sho":14366,"55":14367,"##pe":14368,"followed":14369,"90":14370,"1908":14371,"put":14372,"##kie":14373,"bah":14374,"##ova":14375,"masovian":14376,"comprehensive":14377,"novelist":14378,"male":14379,"##avi":14380,"trail":14381,"forms":14382,"pronunciation":14383,"northwestern":14384,"##lane":14385,"##elled":14386,"travel":14387,"camer":14388,"take":14389,"##wing":14390,"produces":14391,"instrum":14392,"##ippi":14393,"terr":14394,"##di":14395,"##het":14396,"mines":14397,"lanc":14398,"##view":14399,"delaware":14400,"daughter":14401,"wy":14402,"##iers":14403,"tu":14404,"distinct":14405,"mine":14406,"##ho":14407,"##itage":14408,"##amin":14409,"pitts":14410,"aqu":14411,"vice":14412,"##iant":14413,"sund":14414,"replaced":14415,"founding":14416,"##anna":14417,"##ه‎":14418,"emer":14419,"1910":14420,"swiss":14421,"rapper":14422,"##ighth":14423,"bot":14424,"pradesh":14425,"covering":14426,"incorpor":14427,"here":14428,"##inth":14429,"##ilities":14430,"rio":14431,"occup":14432,"multiple":14433,"##inae":14434,"styl":14435,"##umb":14436,"##orm":14437,"lyn":14438,"classical":14439,"website":14440,"51":14441,"tax":14442,"##itted":14443,"literary":14444,"strong":14445,"philos":14446,"gul":14447,"hou":14448,"rocky":14449,"officer":14450,"hur":14451,"steve":14452,"recently":14453,"highway":14454,"heritage":14455,"contributing":14456,"honor":14457,"centimeters":14458,"jam":14459,"relig":14460,"sed":14461,"##rad":14462,"those":14463,"serbia":14464,"bound":14465,"##zow":14466,"chris":14467,"melbourne":14468,"##pa":14469,"true":14470,"maxim":14471,"##ections":14472,"lewis":14473,"##uous":14474,"francis":14475,"method":14476,"pyr":14477,"competition":14478,"residential":14479,"taylor":14480,"drummer":14481,"sales":14482,"linc":14483,"larger":14484,"obs":14485,"##uty":14486,"wilson":14487,"figure":14488,"mississippi":14489,"##ope":14490,"##hew":14491,"##ificant":14492,"1930s":14493,"businessman":14494,"kel":14495,"##mann":14496,"nfl":14497,"gor":14498,"expand":14499,"energy":14500,"without":14501,"##abeth":14502,"manufacturing":14503,"temple":14504,"##inary":14505,"##fect":14506,"##boat":14507,"empire":14508,"##ridae":14509,"charts":14510,"channel":14511,"##asa":14512,"significant":14513,"educated":14514,"manufactured":14515,"takes":14516,"dies":14517,"means":14518,"tells":14519,"##lah":14520,"process":14521,"friend":14522,"##sen":14523,"maria":14524,"regular":14525,"switzer":14526,"hull":14527,"##bell":14528,"54":14529,"rough":14530,"##sex":14531,"britain":14532,"freder":14533,"regard":14534,"dougl":14535,"eliz":14536,"##bl":14537,"##osl":14538,"##ques":14539,"ali":14540,"tril":14541,"##tuidae":14542,"switzerland":14543,"unc":14544,"exchange":14545,"fruit":14546,"##iest":14547,"meters":14548,"##used":14549,"lincoln":14550,"##stein":14551,"bands":14552,"##ential":14553,"hem":14554,"##greg":14555,"garden":14556,"alberta":14557,"joint":14558,"publishes":14559,"spir":14560,"##aku":14561,"floor":14562,"##mph":14563,"##bon":14564,"handed":14565,"subject":14566,"purp":14567,"jas":14568,"kaz":14569,"##agu":14570,"erect":14571,"screenplay":14572,"lam":14573,"rim":14574,"##ators":14575,"##ols":14576,"abbrev":14577,"yard":14578,"##bour":14579,"65":14580,"##aps":14581,"outside":14582,"sierra":14583,"brad":14584,"dog":14585,"nord":14586,"metrop":14587,"arkansas":14588,"harv":14589,"achie":14590,"goth":14591,"warsaw":14592,"##ев":14593,"##unch":14594,"result":14595,"##fish":14596,"##ication":14597,"deliver":14598,"merch":14599,"branc":14600,"##urance":14601,"stems":14602,"sug":14603,"##self":14604,"##lines":14605,"##hu":14606,"soul":14607,"control":14608,"boliv":14609,"look":14610,"marit":14611,"express":14612,"given":14613,"mike":14614,"further":14615,"suppl":14616,"eric":14617,"pad":14618,"rand":14619,"adj":14620,"##ogue":14621,"acres":14622,"##باد‎":14623,"kat":14624,"tail":14625,"partn":14626,"howard":14627,"khan":14628,"falls":14629,"raised":14630,"##olitan":14631,"##opal":14632,"cars":14633,"finished":14634,"anthony":14635,"dal":14636,"##roit":14637,"56":14638,"53":14639,"##rane":14640,"edge":14641,"zone":14642,"faculty":14643,"railroad":14644,"##enced":14645,"shipbuilding":14646,"movement":14647,"recognized":14648,"motorc":14649,"equip":14650,"freshwater":14651,"aver":14652,"##ways":14653,"tol":14654,"commander":14655,"schol":14656,"starred":14657,"##gypt":14658,"noctuidae":14659,"edited":14660,"pick":14661,"exhib":14662,"deal":14663,"1950s":14664,"nearby":14665,"harry":14666,"ident":14667,"kim":14668,"vale":14669,"thor":14670,"##aver":14671,"characters":14672,"lyric":14673,"pack":14674,"deputy":14675,"lux":14676,"bapt":14677,"except":14678,"fighter":14679,"iii":14680,"agent":14681,"##dale":14682,"convent":14683,"dak":14684,"##10":14685,"cooper":14686,"fox":14687,"break":14688,"victorian":14689,"taken":14690,"##uts":14691,"detail":14692,"##ingu":14693,"##ifolia":14694,"associated":14695,"sess":14696,"##weight":14697,"nearly":14698,"1904":14699,"und":14700,"geomet":14701,"trees":14702,"utah":14703,"##ev":14704,"colour":14705,"colonial":14706,"wrest":14707,"trin":14708,"300":14709,"##ito":14710,"appearances":14711,"occurs":14712,"douglas":14713,"borough":14714,"hampshire":14715,"mystery":14716,"reach":14717,"##ci":14718,"voice":14719,"fine":14720,"bachel":14721,"##20":14722,"alaska":14723,"plann":14724,"andre":14725,"flag":14726,"productions":14727,"pitcher":14728,"represents":14729,"##enia":14730,"congo":14731,"suburb":14732,"egypt":14733,"##ateur":14734,"your":14735,"inte":14736,"articles":14737,"1909":14738,"##eston":14739,"if":14740,"pione":14741,"stream":14742,"pir":14743,"##alo":14744,"##ار":14745,"moham":14746,"surrounding":14747,"sin":14748,"##alia":14749,"narrow":14750,"reviews":14751,"##lan":14752,"alp":14753,"##ither":14754,"lublin":14755,"cred":14756,"twenty":14757,"pittsburgh":14758,"##po":14759,"detroit":14760,"1905":14761,"cele":14762,"dick":14763,"mars":14764,"soccer":14765,"malayalam":14766,"oklah":14767,"row":14768,"##empt":14769,"cha":14770,"classic":14771,"venezuela":14772,"concert":14773,"courses":14774,"peninsula":14775,"jay":14776,"##ili":14777,"suff":14778,"##ław":14779,"cultural":14780,"nation":14781,"##bar":14782,"brun":14783,"picture":14784,"gang":14785,"kum":14786,"oklahoma":14787,"hair":14788,"labor":14789,"cyc":14790,"desert":14791,"rear":14792,"landmark":14793,"equipment":14794,"##ories":14795,"interior":14796,"closed":14797,"doctor":14798,"kon":14799,"lif":14800,"changed":14801,"vehicle":14802,"overall":14803,"hart":14804,"polic":14805,"##roph":14806,"chem":14807,"##ying":14808,"##ims":14809,"costa":14810,"focuses":14811,"learning":14812,"max":14813,"montana":14814,"mol":14815,"police":14816,"elizabeth":14817,"64":14818,"cond":14819,"robin":14820,"##uki":14821,"privately":14822,"conservative":14823,"bush":14824,"wet":14825,"##oto":14826,"coed":14827,"swe":14828,"davis":14829,"come":14830,"##ailand":14831,"patrick":14832,"security":14833,"simon":14834,"powered":14835,"diesel":14836,"internet":14837,"1000":14838,"fred":14839,"admir":14840,"serve":14841,"khorasan":14842,"1906":14843,"##rot":14844,"accredited":14845,"hus":14846,"##bach":14847,"barn":14848,"thailand":14849,"platform":14850,"bronze":14851,"cow":14852,"pay":14853,"##cha":14854,"##burn":14855,"##ention":14856,"pale":14857,"##elia":14858,"##aho":14859,"km2":14860,"fis":14861,"brian":14862,"amateur":14863,"myr":14864,"fash":14865,"rises":14866,"lub":14867,"acre":14868,"cart":14869,"experimental":14870,"catal":14871,"candid":14872,"##rom":14873,"versions":14874,"##itive":14875,"seen":14876,"nova":14877,"##ascar":14878,"##rees":14879,"raz":14880,"##yg":14881,"intended":14882,"enrollment":14883,"57":14884,"future":14885,"houston":14886,"regions":14887,"automob":14888,"preparatory":14889,"greg":14890,"ple":14891,"tun":14892,"hang":14893,"##rid":14894,"himself":14895,"sud":14896,"##gu":14897,"asp":14898,"course":14899,"pond":14900,"oxford":14901,"66":14902,"eag":14903,"eighth":14904,"spl":14905,"itself":14906,"hamil":14907,"##cot":14908,"terms":14909,"discover":14910,"belongs":14911,"mosc":14912,"hamilton":14913,"cyr":14914,"tas":14915,"##ification":14916,"##brid":14917,"olympic":14918,"##reme":14919,"##ece":14920,"clin":14921,"##rupt":14922,"##ulation":14923,"##ographer":14924,"pupils":14925,"dais":14926,"cham":14927,"requ":14928,"horn":14929,"nag":14930,"##onian":14931,"shore":14932,"undergraduate":14933,"espec":14934,"producing":14935,"##anced":14936,"announced":14937,"peaked":14938,"gothic":14939,"fail":14940,"entire":14941,"broadcast":14942,"baptist":14943,"##rus":14944,"palm":14945,"rot":14946,"inspired":14947,"pianist":14948,"altitude":14949,"fu":14950,"railways":14951,"towns":14952,"ott":14953,"saf":14954,"##ocarp":14955,"##jord":14956,"cities":14957,"##chi":14958,"cry":14959,"rat":14960,"jes":14961,"our":14962,"##acent":14963,"coup":14964,"ross":14965,"beaut":14966,"bru":14967,"providing":14968,"walter":14969,"especially":14970,"tanz":14971,"##off":14972,"##bed":14973,"1st":14974,"ow":14975,"##iab":14976,"account":14977,"##mal":14978,"##ream":14979,"orth":14980,"belgian":14981,"brist":14982,"drive":14983,"angl":14984,"transferred":14985,"##ouver":14986,"snow":14987,"##ems":14988,"comes":14989,"##ello":14990,"roc":14991,"##pson":14992,"solut":14993,"locations":14994,"geometridae":14995,"mam":14996,"coeduc":14997,"400":14998,"maur":14999,"forewings":15000,"ranges":15001,"occas":15002,"custom":15003,"tallest":15004,"##zeg":15005,"urban":15006,"blood":15007,"##rin":15008,"keral":15009,"tam":15010,"##ista":15011,"provider":15012,"communications":15013,"coeducational":15014,"lov":15015,"vanc":15016,"##ination":15017,"facility":15018,"maritime":15019,"shipyard":15020,"1907":15021,"karnat":15022,"progressive":15023,"##ateau":15024,"flying":15025,"##hr":15026,"salv":15027,"##inger":15028,"##uther":15029,"officially":15030,"##rint":15031,"prob":15032,"courth":15033,"lawr":15034,"welsh":15035,"fame":15036,"han":15037,"1903":15038,"micro":15039,"fashion":15040,"kerala":15041,"karnataka":15042,"provide":15043,"##iker":15044,"premiered":15045,"fight":15046,"lun":15047,"##war":15048,"fel":15049,"moscow":15050,"##andra":15051,"apart":15052,"titles":15053,"telugu":15054,"adjacent":15055,"adventure":15056,"residence":15057,"nob":15058,"##ipe":15059,"chapel":15060,"##agen":15061,"##cester":15062,"##ographic":15063,"cabinet":15064,"vancouver":15065,"factory":15066,"becoming":15067,"##ori":15068,"warner":15069,"separate":15070,"##more":15071,"seattle":15072,"prec":15073,"bachelor":15074,"dol":15075,"gord":15076,"baltim":15077,"58":15078,"nap":15079,"stat":15080,"rome":15081,"baltimore":15082,"fictional":15083,"animated":15084,"buff":15085,"converted":15086,"##uan":15087,"smaller":15088,"scul":15089,"portland":15090,"nigeria":15091,"##ched":15092,"canton":15093,"sent":15094,"diego":15095,"ug":15096,"majority":15097,"preserv":15098,"wooden":15099,"gi":15100,"##wich":15101,"##atively":15102,"example":15103,"metropolitan":15104,"##mo":15105,"degrees":15106,"1898":15107,"##rod":15108,"filmed":15109,"franklin":15110,"jur":15111,"mak":15112,"ranked":15113,"abd":15114,"manchester":15115,"complete":15116,"##ao":15117,"antonio":15118,"wolf":15119,"##heim":15120,"hond":15121,"jama":15122,"ward":15123,"obl":15124,"74":15125,"kos":15126,"cho":15127,"attempt":15128,"kl":15129,"##usc":15130,"gray":15131,"cass":15132,"nebr":15133,"lines":15134,"anti":15135,"##vert":15136,"##ophy":15137,"fabaceae":15138,"alan":15139,"poetry":15140,"involved":15141,"ay":15142,"months":15143,"investment":15144,"lawrence":15145,"sad":15146,"frigate":15147,"kan":15148,"swim":15149,"##iders":15150,"finland":15151,"defe":15152,"duo":15153,"dakota":15154,"rico":15155,"##zyn":15156,"##isa":15157,"##ishop":15158,"crew":15159,"samuel":15160,"##yst":15161,"lp":15162,"##ranean":15163,"pas":15164,"bright":15165,"austin":15166,"allen":15167,"dall":15168,"twel":15169,"trilogy":15170,"##veland":15171,"morris":15172,"##ان‎":15173,"tort":15174,"kw":15175,"romanian":15176,"1901":15177,"escort":15178,"integr":15179,"hour":15180,"##itors":15181,"managed":15182,"christopher":15183,"dock":15184,"austria":15185,"memorial":15186,"bangl":15187,"universities":15188,"hero":15189,"got":15190,"##uri":15191,"##estone":15192,"depth":15193,"um":15194,"hud":15195,"##30":15196,"lac":15197,"##wright":15198,"##asing":15199,"gran":15200,"carry":15201,"operation":15202,"miller":15203,"maximum":15204,"cook":15205,"1902":15206,"62":15207,"##vɔ":15208,"succe":15209,"adaptation":15210,"territory":15211,"##oba":15212,"bangladesh":15213,"##kan":15214,"aviation":15215,"##isters":15216,"##borough":15217,"murder":15218,"courthouse":15219,"cyp":15220,"cleveland":15221,"gym":15222,"provided":15223,"starting":15224,"##leg":15225,"##ills":15226,"##issance":15227,"##sky":15228,"twelve":15229,"greece":15230,"bernard":15231,"ib":15232,"friends":15233,"von":15234,"plot":15235,"eventually":15236,"data":15237,"impact":15238,"hans":15239,"rober":15240,"150":15241,"shir":15242,"##ancy":15243,"##kow":15244,"cos":15245,"celebr":15246,"sor":15247,"sid":15248,"##oa":15249,"carp":15250,"behind":15251,"##iot":15252,"intell":15253,"##jɛ":15254,"brief":15255,"admiral":15256,"lob":15257,"nich":15258,"##bro":15259,"could":15260,"christmas":15261,"dream":15262,"##wart":15263,"hybrid":15264,"asteraceae":15265,"##cul":15266,"politics":15267,"ancient":15268,"must":15269,"daisy":15270,"publications":15271,"manager":15272,"beat":15273,"remix":15274,"critic":15275,"fields":15276,"pine":15277,"uses":15278,"mp":15279,"designer":15280,"communities":15281,"transportation":15282,"sculpt":15283,"moore":15284,"insurance":15285,"bolivia":15286,"##ll":15287,"asian":15288,"pow":15289,"vern":15290,"##cia":15291,"##aceous":15292,"diameter":15293,"og":15294,"pin":15295,"chron":15296,"madag":15297,"mediter":15298,"kap":15299,"consult":15300,"59":15301,"ig":15302,"consum":15303,"branches":15304,"cum":15305,"mare":15306,"##mes":15307,"get":15308,"ky":15309,"liver":15310,"lev":15311,"##aha":15312,"jane":15313,"cem":15314,"kol":15315,"##pool":15316,"ahmad":15317,"bengali":15318,"kann":15319,"romance":15320,"##inum":15321,"conv":15322,"grew":15323,"industries":15324,"performances":15325,"frog":15326,"distance":15327,"universal":15328,"176":15329,"cc":15330,"##ер":15331,"##itch":15332,"teaching":15333,"abbreviated":15334,"bia":15335,"##opes":15336,"guest":15337,"respons":15338,"kab":15339,"units":15340,"prototyp":15341,"categ":15342,"teen":15343,"ern":15344,"clear":15345,"pear":15346,"shan":15347,"tony":15348,"chah":15349,"##isha":15350,"wings":15351,"gon":15352,"gib":15353,"##ih":15354,"flat":15355,"cambridge":15356,"away":15357,"##uled":15358,"shows":15359,"bomb":15360,"cher":15361,"dublin":15362,"room":15363,"relation":15364,"##ef":15365,"##apolis":15366,"confl":15367,"gay":15368,"##oko":15369,"genera":15370,"ordered":15371,"atlanta":15372,"reaching":15373,"idaho":15374,"israel":15375,"dc":15376,"sized":15377,"##iph":15378,"sched":15379,"canal":15380,"episc":15381,"telec":15382,"##elle":15383,"entry":15384,"rights":15385,"highly":15386,"expanded":15387,"merchant":15388,"markets":15389,"performing":15390,"whom":15391,"score":15392,"earned":15393,"barr":15394,"issued":15395,"provincial":15396,"yam":15397,"springs":15398,"##oli":15399,"1895":15400,"##ule":15401,"##list":15402,"indie":15403,"economic":15404,"mediterranean":15405,"ninth":15406,"##ин":15407,"##igr":15408,"advanced":15409,"jewish":15410,"##tt":15411,"##green":15412,"nebraska":15413,"subsequently":15414,"fav":15415,"remains":15416,"sap":15417,"resour":15418,"monop":15419,"1890":15420,"gam":15421,"va":15422,"##qi":15423,"purple":15424,"tang":15425,"miami":15426,"centimetres":15427,"episcopal":15428,"##iri":15429,"##avia":15430,"classes":15431,"till":15432,"campuses":15433,"holy":15434,"##40":15435,"##iance":15436,"1896":15437,"survey":15438,"ring":15439,"##gart":15440,"dh":15441,"##alis":15442,"lok":15443,"##van":15444,"truck":15445,"12th":15446,"derived":15447,"cel":15448,"##ands":15449,"##ayan":15450,"holds":15451,"util":15452,"##aine":15453,"facilities":15454,"67":15455,"##umes":15456,"estonia":15457,"lith":15458,"additional":15459,"chester":15460,"leav":15461,"##rys":15462,"rules":15463,"1899":15464,"motorcycle":15465,"bart":15466,"##ор":15467,"gable":15468,"forces":15469,"frederick":15470,"nel":15471,"ard":15472,"##clus":15473,"61":15474,"opt":15475,"tab":15476,"##ен":15477,"prefect":15478,"##enian":15479,"solutions":15480,"skys":15481,"assistant":15482,"madagascar":15483,"case":15484,"subspec":15485,"install":15486,"salt":15487,"winner":15488,"particularly":15489,"##illic":15490,"##ahan":15491,"meas":15492,"ferry":15493,"hug":15494,"collected":15495,"volcano":15496,"nash":15497,"portion":15498,"jord":15499,"m2":15500,"##لي":15501,"conduct":15502,"175":15503,"##ead":15504,"1897":15505,"vel":15506,"##ellidae":15507,"##zh":15508,"dragon":15509,"estab":15510,"birth":15511,"cy":15512,"1920s":15513,"drafted":15514,"ja":15515,"##aro":15516,"warm":15517,"72":15518,"##chen":15519,"debuted":15520,"68":15521,"bou":15522,"rise":15523,"##ashi":15524,"brooklyn":15525,"bats":15526,"##ements":15527,"##berry":15528,"filip":15529,"divers":15530,"engineer":15531,"mes":15532,"##ovina":15533,"donald":15534,"meeting":15535,"skyscr":15536,"subspecies":15537,"##rig":15538,"##zo":15539,"sha":15540,"offering":15541,"aged":15542,"##ifer":15543,"blo":15544,"partner":15545,"strip":15546,"##unt":15547,"##ologist":15548,"##book":15549,"explor":15550,"find":15551,"shad":15552,"##ologies":15553,"evergreen":15554,"congreg":15555,"guy":15556,"stands":15557,"din":15558,"adam":15559,"rena":15560,"ax":15561,"unkn":15562,"lot":15563,"##rice":15564,"temper":15565,"comed":15566,"brew":15567,"exclus":15568,"mort":15569,"##iva":15570,"policy":15571,"probably":15572,"ms":15573,"deh":15574,"bristol":15575,"piec":15576,"mind":15577,"pharm":15578,"##aja":15579,"##lets":15580,"bosnia":15581,"jar":15582,"nik":15583,"oppos":15584,"automobile":15585,"establish":15586,"##oted":15587,"##estyle":15588,"##iplane":15589,"orche":15590,"glass":15591,"biggest":15592,"occurr":15593,"##prise":15594,"podl":15595,"islam":15596,"alfred":15597,"tet":15598,"##olas":15599,"confer":15600,"##ras":15601,"phill":15602,"juan":15603,"boarding":15604,"gordon":15605,"joh":15606,"belie":15607,"ukraine":15608,"instrumental":15609,"cord":15610,"##lu":15611,"kenya":15612,"average":15613,"85":15614,"philip":15615,"unknown":15616,"sul":15617,"##mi":15618,"##uma":15619,"##elli":15620,"incorporated":15621,"##abil":15622,"epis":15623,"bey":15624,"page":15625,"##yth":15626,"neg":15627,"yorkshire":15628,"thai":15629,"amaz":15630,"##ompass":15631,"gymn":15632,"km²":15633,"motors":15634,"simpl":15635,"##een":15636,"merged":15637,"richmond":15638,"hold":15639,"##isk":15640,"orle":15641,"cemet":15642,"scen":15643,"hawaii":15644,"desp":15645,"developer":15646,"finance":15647,"cemetery":15648,"##ints":15649,"##ians":15650,"71":15651,"##opsis":15652,"cyrillic":15653,"anderson":15654,"berk":15655,"scotia":15656,"63":15657,"##iti":15658,"encompass":15659,"biał":15660,"mord":15661,"##ties":15662,"##yo":15663,"recent":15664,"door":15665,"translated":15666,"##pur":15667,"##rem":15668,"##eper":15669,"grown":15670,"##hra":15671,"religious":15672,"##gae":15673,"semi":15674,"rate":15675,"helic":15676,"landing":15677,"cruiser":15678,"candidate":15679,"##vens":15680,"specific":15681,"scor":15682,"valea":15683,"advert":15684,"matthew":15685,"botan":15686,"##sch":15687,"##oda":15688,"slight":15689,"content":15690,"closely":15691,"internationally":15692,"##aught":15693,"amp":15694,"tan":15695,"legume":15696,"orleans":15697,"lay":15698,"theater":15699,"classified":15700,"specializing":15701,"sang":15702,"##oen":15703,"teams":15704,"gulf":15705,"scholar":15706,"visual":15707,"##stra":15708,"carib":15709,"text":15710,"mineswe":15711,"carrier":15712,"link":15713,"##king":15714,"##hatt":15715,"vik":15716,"##utt":15717,"accla":15718,"domest":15719,"anime":15720,"walker":15721,"horse":15722,"consisting":15723,"tanzania":15724,"##arus":15725,"cole":15726,"1892":15727,"map":15728,"##enny":15729,"18th":15730,"musicians":15731,"returned":15732,"##zi":15733,"kevin":15734,"discovered":15735,"vinc":15736,"veter":15737,"##look":15738,"billion":15739,"dyn":15740,"##را":15741,"pronounced":15742,"specializes":15743,"fellow":15744,"herzeg":15745,"##ante":15746,"licens":15747,"relationship":15748,"engines":15749,"##ович":15750,"rhode":15751,"tow":15752,"bom":15753,"##ipped":15754,"anglican":15755,"##لا":15756,"##avian":15757,"squad":15758,"1893":15759,"eg":15760,"##gium":15761,"##ectively":15762,"adams":15763,"##obi":15764,"vic":15765,"##gow":15766,"dram":15767,"match":15768,"herzegovina":15769,"##stream":15770,"##aza":15771,"austrian":15772,"sq":15773,"scar":15774,"help":15775,"dallas":15776,"1889":15777,"commerce":15778,"##core":15779,"##agan":15780,"twice":15781,"##oka":15782,"bruce":15783,"carn":15784,"cameroon":15785,"##jab":15786,"legend":15787,"##yees":15788,"know":15789,"employees":15790,"##keeper":15791,"slopes":15792,"latter":15793,"cinema":15794,"##aign":15795,"##itation":15796,"##itled":15797,"##adi":15798,"certified":15799,"##ving":15800,"##ла":15801,"treat":15802,"##ced":15803,"recon":15804,"gill":15805,"either":15806,"kg":15807,"##ecess":15808,"ira":15809,"##iction":15810,"metro":15811,"1894":15812,"1885":15813,"bath":15814,"##iting":15815,"##ido":15816,"poz":15817,"1891":15818,"remained":15819,"dd":15820,"ost":15821,"rab":15822,"##gas":15823,"##oni":15824,"marketing":15825,"fus":15826,"##bird":15827,"russell":15828,"architectural":15829,"bollywood":15830,"##isp":15831,"##eta":15832,"unl":15833,"##ophor":15834,"mascot":15835,"saxoph":15836,"76":15837,"mouth":15838,"##ии":15839,"labour":15840,"sky":15841,"2nd":15842,"##aux":15843,"aka":15844,"hell":15845,"##12":15846,"operator":15847,"opening":15848,"anthology":15849,"##utes":15850,"build":15851,"##eding":15852,"economics":15853,"tasman":15854,"bishop":15855,"##jar":15856,"releases":15857,"delhi":15858,"##stand":15859,"playwright":15860,"##rac":15861,"does":15862,"marie":15863,"magn":15864,"prototype":15865,"skyscraper":15866,"gary":15867,"##met":15868,"##icult":15869,"genre":15870,"institutions":15871,"scene":15872,"vinyl":15873,"##cel":15874,"borne":15875,"wright":15876,"venture":15877,"##ging":15878,"ens":15879,"##ennis":15880,"mathem":15881,"vessels":15882,"ghana":15883,"cultivar":15884,"agricultural":15885,"methodist":15886,"##kar":15887,"##avan":15888,"##flower":15889,"said":15890,"nurs":15891,"##zen":15892,"##atra":15893,"##atche":15894,"##mingham":15895,"jacob":15896,"regarded":15897,"cu":15898,"registered":15899,"biplane":15900,"acting":15901,"##riage":15902,"cad":15903,"wine":15904,"nadu":15905,"##dam":15906,"happ":15907,"zh":15908,"unique":15909,"##named":15910,"coun":15911,"practice":15912,"##ube":15913,"monte":15914,"##encer":15915,"##fla":15916,"brom":15917,"ey":15918,"gene":15919,"husband":15920,"accept":15921,"69":15922,"sons":15923,"##esse":15924,"diplomat":15925,"bann":15926,"##mus":15927,"graph":15928,"##duce":15929,"legal":15930,"crown":15931,"slovak":15932,"sabha":15933,"cyl":15934,"mum":15935,"inh":15936,"mathemat":15937,"##ansk":15938,"##iko":15939,"spirit":15940,"credit":15941,"##orous":15942,"peters":15943,"weeks":15944,"sle":15945,"spread":15946,"nature":15947,"1887":15948,"entir":15949,"120":15950,"eug":15951,"nak":15952,"concern":15953,"birmingham":15954,"kings":15955,"##ifically":15956,"supporting":15957,"tennis":15958,"##rance":15959,"##lington":15960,"##esian":15961,"focused":15962,"entirely":15963,"aur":15964,"cinc":15965,"nas":15966,"launch":15967,"furn":15968,"glas":15969,"73":15970,"##udi":15971,"sofla":15972,"nelson":15973,"continued":15974,"refers":15975,"78":15976,"##urian":15977,"overlook":15978,"##loyd":15979,"panama":15980,"croatian":15981,"prefecture":15982,"##yers":15983,"##echn":15984,"margar":15985,"credited":15986,"corporate":15987,"اباد‎":15988,"##cy":15989,"##icul":15990,"trip":15991,"below":15992,"eld":15993,"kid":15994,"article":15995,"assigned":15996,"sweet":15997,"##nik":15998,"##gi":15999,"##ige":16000,"grammy":16001,"rather":16002,"wes":16003,"##orne":16004,"longest":16005,"speaker":16006,"82":16007,"zam":16008,"##ingham":16009,"adventures":16010,"##ray":16011,"wayne":16012,"dim":16013,"mt":16014,"sain":16015,"##zt":16016,"##eni":16017,"##ground":16018,"sale":16019,"##nel":16020,"##agar":16021,"capac":16022,"defense":16023,"lloyd":16024,"yug":16025,"##aca":16026,"olya":16027,"comprises":16028,"monoplane":16029,"rib":16030,"bassist":16031,"##vis":16032,"##aters":16033,"sett":16034,"##bean":16035,"ord":16036,"##ographical":16037,"denmark":16038,"pomerania":16039,"bag":16040,"##cs":16041,"##estrial":16042,"search":16043,"##enna":16044,"anal":16045,"##iah":16046,"airlines":16047,"treas":16048,"captured":16049,"lunar":16050,"sask":16051,"##ament":16052,"distingu":16053,"palace":16054,"heights":16055,"98":16056,"inside":16057,"dave":16058,"fisher":16059,"vocals":16060,"##apers":16061,"volumes":16062,"underground":16063,"alpine":16064,"mack":16065,"simplified":16066,"##hattan":16067,"bes":16068,"unr":16069,"##odge":16070,"##angel":16071,"striker":16072,"##eley":16073,"##bre":16074,"##atum":16075,"##thing":16076,"##idents":16077,"coal":16078,"clay":16079,"dwelling":16080,"##uro":16081,"##lad":16082,"##ando":16083,"wyoming":16084,"say":16085,"##ski":16086,"arn":16087,"engined":16088,"jefferson":16089,"quality":16090,"##iper":16091,"heavily":16092,"core":16093,"taking":16094,"clar":16095,"scheduled":16096,"##oman":16097,"##ardo":16098,"strat":16099,"knight":16100,"punjab":16101,"bulgarian":16102,"matches":16103,"reserve":16104,"bonus":16105,"ry":16106,"share":16107,"designs":16108,"1880":16109,"possib":16110,"kannada":16111,"##ск":16112,"warren":16113,"##oria":16114,"centers":16115,"manhattan":16116,"confused":16117,"pierre":16118,"split":16119,"filipino":16120,"direction":16121,"manit":16122,"reiss":16123,"offered":16124,"projects":16125,"mess":16126,"##con":16127,"##ager":16128,"torped":16129,"1888":16130,"oz":16131,"##hor":16132,"incre":16133,"##eks":16134,"enterprise":16135,"##iday":16136,"##rator":16137,"literal":16138,"contest":16139,"older":16140,"hund":16141,"despite":16142,"##ghan":16143,"collaboration":16144,"cool":16145,"vac":16146,"toy":16147,"##ension":16148,"tortric":16149,"##ør":16150,"##idad":16151,"moving":16152,"bengal":16153,"purpose":16154,"baron":16155,"frequ":16156,"grammar":16157,"nom":16158,"ols":16159,"rav":16160,"seg":16161,"owns":16162,"luis":16163,"reference":16164,"responsible":16165,"bic":16166,"overs":16167,"##hat":16168,"thompson":16169,"##vi":16170,"broadway":16171,"applied":16172,"lem":16173,"sisters":16174,"hollywood":16175,"##nie":16176,"##light":16177,"##omes":16178,"##leton":16179,"appears":16180,"##ented":16181,"househ":16182,"occasional":16183,"authority":16184,"critical":16185,"quarterly":16186,"pel":16187,"##lie":16188,"compar":16189,"mead":16190,"1886":16191,"lad":16192,"##onist":16193,"##istics":16194,"scored":16195,"independence":16196,"##echan":16197,"cinem":16198,"tribe":16199,"cincinn":16200,"hos":16201,"haj":16202,"##lev":16203,"format":16204,"torpedo":16205,"cot":16206,"##enh":16207,"experience":16208,"confeder":16209,"poznan":16210,"face":16211,"##ар":16212,"spider":16213,"teachers":16214,"category":16215,"esp":16216,"lyc":16217,"porn":16218,"##gom":16219,"##ور":16220,"##isation":16221,"disney":16222,"slightly":16223,"arc":16224,"##shah":16225,"##ku":16226,"##char":16227,"fars":16228,"libert":16229,"feder":16230,"danc":16231,"sah":16232,"##sel":16233,"hat":16234,"##ients":16235,"##maker":16236,"77":16237,"##olly":16238,"glen":16239,"##cript":16240,"len":16241,"##ulu":16242,"campaign":16243,"investig":16244,"roberts":16245,"sunk":16246,"##gers":16247,"##orts":16248,"terrestrial":16249,"roughly":16250,"eh":16251,"chall":16252,"##load":16253,"streets":16254,"chi":16255,"elements":16256,"caribbean":16257,"cincinnati":16258,"gained":16259,"97":16260,"##forest":16261,"sole":16262,"fully":16263,"##anger":16264,"types":16265,"##tan":16266,"1883":16267,"##nica":16268,"##uct":16269,"prom":16270,"banking":16271,"participated":16272,"rid":16273,"##11":16274,"##yne":16275,"curt":16276,"beetles":16277,"activities":16278,"wiel":16279,"bull":16280,"lav":16281,"wick":16282,"##olo":16283,"murr":16284,"##inus":16285,"coc":16286,"vid":16287,"franch":16288,"writers":16289,"alongside":16290,"derby":16291,"agriculture":16292,"gd":16293,"##mat":16294,"chur":16295,"singh":16296,"##lins":16297,"shortly":16298,"1884":16299,"catch":16300,"##chell":16301,"goalkeeper":16302,"change":16303,"hudson":16304,"##wal":16305,"##ين":16306,"##built":16307,"attract":16308,"ult":16309,"##lear":16310,"campbell":16311,"specialized":16312,"audio":16313,"baker":16314,"##iles":16315,"specifically":16316,"mahar":16317,"herbaceous":16318,"susp":16319,"bav":16320,"##ugal":16321,"johnny":16322,"vehicles":16323,"excell":16324,"luxury":16325,"##astic":16326,"euph":16327,"motion":16328,"##tained":16329,"##weed":16330,"stewart":16331,"belgium":16332,"roger":16333,"details":16334,"##len":16335,"##60":16336,"least":16337,"supply":16338,"##anthus":16339,"domestic":16340,"##var":16341,"##hester":16342,"##orph":16343,"carter":16344,"opera":16345,"technologies":16346,"liverpool":16347,"should":16348,"males":16349,"jonathan":16350,"uganda":16351,"bene":16352,"##ovic":16353,"tales":16354,"bod":16355,"##ously":16356,"iz":16357,"##cus":16358,"250":16359,"marshall":16360,"andhra":16361,"armed":16362,"hir":16363,"norman":16364,"merger":16365,"lane":16366,"parents":16367,"meg":16368,"jordan":16369,"bm":16370,"##din":16371,"allies":16372,"broken":16373,"silesian":16374,"coming":16375,"presby":16376,"goals":16377,"landsc":16378,"morgan":16379,"mut":16380,"morn":16381,"##fa":16382,"lyrics":16383,"kor":16384,"somers":16385,"floors":16386,"trinity":16387,"buffalo":16388,"sides":16389,"wool":16390,"##ampton":16391,"shipping":16392,"crow":16393,"rated":16394,"##bank":16395,"##rical":16396,"bala":16397,"presbyter":16398,"hyp":16399,"##aman":16400,"michel":16401,"capacity":16402,"##su":16403,"georgian":16404,"changes":16405,"nuc":16406,"174":16407,"interview":16408,"ambass":16409,"79":16410,"khuz":16411,"hundred":16412,"81":16413,"mis":16414,"14th":16415,"gallery":16416,"stanley":16417,"croatia":16418,"rica":16419,"##anes":16420,"brig":16421,"barry":16422,"continental":16423,"hungary":16424,"3rd":16425,"88":16426,"rick":16427,"mining":16428,"mosque":16429,"makes":16430,"towards":16431,"relatively":16432,"hend":16433,"tenth":16434,"##eless":16435,"reform":16436,"plain":16437,"shape":16438,"turned":16439,"kiel":16440,"##rast":16441,"hunt":16442,"bbc":16443,"##die":16444,"##oust":16445,"produce":16446,"lock":16447,"sao":16448,"kumar":16449,"ian":16450,"ski":16451,"##folk":16452,"citiz":16453,"pair":16454,"rig":16455,"stu":16456,"##allow":16457,"yugosl":16458,"khuzestan":16459,"##illo":16460,"leban":16461,"cloud":16462,"trading":16463,"cav":16464,"roots":16465,"sym":16466,"##dal":16467,"cold":16468,"detective":16469,"gate":16470,"crim":16471,"##askie":16472,"hunter":16473,"kelly":16474,"groups":16475,"minesweeper":16476,"kath":16477,"##com":16478,"anch":16479,"soon":16480,"sandy":16481,"gross":16482,"##iform":16483,"bog":16484,"buc":16485,"tortricidae":16486,"gaz":16487,"##sm":16488,"phoen":16489,"cell":16490,"jet":16491,"##iya":16492,"##aces":16493,"160":16494,"philosophy":16495,"communist":16496,"magazines":16497,"##unct":16498,"##iji":16499,"ghost":16500,"sites":16501,"1875":16502,"activist":16503,"luther":16504,"##wall":16505,"abs":16506,"doub":16507,"oliver":16508,"hope":16509,"peace":16510,"pic":16511,"tou":16512,"israeli":16513,"heb":16514,"climb":16515,"parent":16516,"renown":16517,"environmental":16518,"pioneer":16519,"ambassador":16520,"sony":16521,"experi":16522,"conference":16523,"literally":16524,"##uta":16525,"##tha":16526,"forming":16527,"bott":16528,"gur":16529,"##uda":16530,"pruss":16531,"norfolk":16532,"##alf":16533,"##asia":16534,"players":16535,"midd":16536,"possibly":16537,"##roc":16538,"longer":16539,"mohammad":16540,"customers":16541,"batsman":16542,"pav":16543,"prest":16544,"##oker":16545,"portugal":16546,"93":16547,"eye":16548,"slo":16549,"tale":16550,"##rh":16551,"freed":16552,"lud":16553,"mini":16554,"money":16555,"##ovich":16556,"1882":16557,"carlos":16558,"##bers":16559,"tod":16560,"cruise":16561,"presbyterian":16562,"##low":16563,"blu":16564,"remaining":16565,"loan":16566,"glasgow":16567,"mig":16568,"notably":16569,"steven":16570,"animation":16571,"##meh":16572,"languages":16573,"vine":16574,"##dr":16575,"ended":16576,"formation":16577,"##sin":16578,"##izard":16579,"poor":16580,"guide":16581,"beij":16582,"transit":16583,"1881":16584,"anna":16585,"ryan":16586,"want":16587,"yu":16588,"##iop":16589,"colors":16590,"##ruction":16591,"machine":16592,"sage":16593,"monk":16594,"montgom":16595,"hydro":16596,"montgomery":16597,"wer":16598,"##bul":16599,"##apes":16600,"models":16601,"kinder":16602,"##stad":16603,"shin":16604,"newspapers":16605,"madison":16606,"95":16607,"mey":16608,"satell":16609,"##ichi":16610,"divided":16611,"nations":16612,"tul":16613,"sty":16614,"unus":16615,"##ishi":16616,"##ommun":16617,"keyboard":16618,"lil":16619,"##aled":16620,"orient":16621,"grac":16622,"drag":16623,"##teenth":16624,"limestone":16625,"combined":16626,"piano":16627,"bulgaria":16628,"nazi":16629,"rah":16630,"##eenth":16631,"##ˈt":16632,"autobi":16633,"theme":16634,"uns":16635,"1870":16636,"thorn":16637,"plans":16638,"translation":16639,"billy":16640,"planned":16641,"churches":16642,"84":16643,"99":16644,"create":16645,"connected":16646,"chan":16647,"singing":16648,"1867":16649,"battles":16650,"##uation":16651,"##حم":16652,"grah":16653,"##ideae":16654,"journey":16655,"karl":16656,"##fo":16657,"stop":16658,"13th":16659,"circulation":16660,"vincent":16661,"gent":16662,"##iere":16663,"110":16664,"nashville":16665,"bond":16666,"##can":16667,"recre":16668,"farmer":16669,"1874":16670,"1863":16671,"beijing":16672,"dia":16673,"##lon":16674,"##ws":16675,"kilometers":16676,"##gle":16677,"##otte":16678,"minute":16679,"largely":16680,"##aul":16681,"supreme":16682,"wol":16683,"entre":16684,"600":16685,"lag":16686,"ports":16687,"margaret":16688,"##aser":16689,"##iful":16690,"brid":16691,"metre":16692,"##ariidae":16693,"murray":16694,"##nic":16695,"##edonia":16696,"resemb":16697,"##rah":16698,"diff":16699,"rainforest":16700,"jesus":16701,"temperate":16702,"caus":16703,"mail":16704,"##gate":16705,"fried":16706,"cann":16707,"remake":16708,"eleven":16709,"ches":16710,"ov":16711,"##gie":16712,"inner":16713,"jason":16714,"dates":16715,"gear":16716,"ric":16717,"essex":16718,"800":16719,"peaks":16720,"urdu":16721,"initial":16722,"mitchell":16723,"fill":16724,"##aging":16725,"marvel":16726,"latv":16727,"fix":16728,"sank":16729,"epic":16730,"wed":16731,"##uster":16732,"reaches":16733,"tug":16734,"locally":16735,"##zes":16736,"alum":16737,"elections":16738,"##anne":16739,"marked":16740,"influential":16741,"cave":16742,"hors":16743,"##udes":16744,"mong":16745,"##under":16746,"endang":16747,"commissioner":16748,"1872":16749,"4th":16750,"fat":16751,"wre":16752,"encompasses":16753,"somerset":16754,"##oga":16755,"critics":16756,"platinum":16757,"papua":16758,"manitoba":16759,"##uv":16760,"consumer":16761,"fan":16762,"##hing":16763,"##owice":16764,"griff":16765,"academ":16766,"younger":16767,"##othy":16768,"painting":16769,"predecess":16770,"bought":16771,"ty":16772,"uc":16773,"seb":16774,"##aea":16775,"##standing":16776,"phoenix":16777,"baby":16778,"jamaica":16779,"##pers":16780,"instead":16781,"##zew":16782,"mansion":16783,"##garten":16784,"##zys":16785,"defensive":16786,"1876":16787,"honour":16788,"beth":16789,"intellig":16790,"##ss":16791,"diamond":16792,"orchestra":16793,"endangered":16794,"pant":16795,"##owiec":16796,"170":16797,"130":16798,"1861":16799,"87":16800,"lan":16801,"nhl":16802,"tyr":16803,"##ju":16804,"compact":16805,"robinson":16806,"defeated":16807,"epit":16808,"armenian":16809,"1860":16810,"razavi":16811,"bomber":16812,"holl":16813,"rene":16814,"##enton":16815,"1871":16816,"15th":16817,"corp":16818,"snake":16819,"achieved":16820,"##umi":16821,"movies":16822,"cany":16823,"dip":16824,"gian":16825,"86":16826,"need":16827,"##iba":16828,"specialist":16829,"organiz":16830,"benj":16831,"ced":16832,"ech":16833,"##hist":16834,"1500":16835,"harbor":16836,"wilder":16837,"gardens":16838,"bak":16839,"lip":16840,"duke":16841,"eagle":16842,"fi":16843,"##eton":16844,"paperback":16845,"formally":16846,"grande":16847,"succeeded":16848,"##ик":16849,"newport":16850,"##oresc":16851,"telecommun":16852,"##amo":16853,"corps":16854,"authors":16855,"creative":16856,"rect":16857,"##atchewan":16858,"saskatchewan":16859,"cul":16860,"##eas":16861,"legislature":16862,"##usa":16863,"drain":16864,"driver":16865,"indonesian":16866,"mast":16867,"andy":16868,"allow":16869,"decor":16870,"##aleh":16871,"photographer":16872,"jimmy":16873,"92":16874,"bure":16875,"##do":16876,"trains":16877,"stevens":16878,"immed":16879,"benn":16880,"##uca":16881,"hisp":16882,"iranian":16883,"licensed":16884,"kind":16885,"##fr":16886,"spin":16887,"basis":16888,"1873":16889,"thorough":16890,"ki":16891,"mv":16892,"mul":16893,"##fort":16894,"##ovo":16895,"historian":16896,"entrance":16897,"guns":16898,"ceo":16899,"##asi":16900,"##ifl":16901,"contain":16902,"83":16903,"rush":16904,"declar":16905,"extensive":16906,"alger":16907,"trio":16908,"coff":16909,"##achi":16910,"mills":16911,"imprint":16912,"thought":16913,"iceland":16914,"sunday":16915,"nuclear":16916,"dob":16917,"cannes":16918,"capit":16919,"honda":16920,"podlaskie":16921,"##zan":16922,"perry":16923,"##grass":16924,"defence":16925,"ultim":16926,"##esc":16927,"##onder":16928,"loch":16929,"renowned":16930,"lion":16931,"proble":16932,"birds":16933,"lithu":16934,"unlike":16935,"##80":16936,"##anny":16937,"nicknamed":16938,"##star":16939,"chrys":16940,"##ulum":16941,"properties":16942,"##ле":16943,"directly":16944,"cob":16945,"infloresc":16946,"mumbai":16947,"eb":16948,"vert":16949,"##has":16950,"##ifol":16951,"flood":16952,"##ilis":16953,"supported":16954,"congregation":16955,"benjamin":16956,"91":16957,"ni":16958,"herbert":16959,"ranging":16960,"mant":16961,"grove":16962,"hm":16963,"raf":16964,"##mers":16965,"##erts":16966,"##ache":16967,"thick":16968,"17th":16969,"tech":16970,"going":16971,"1864":16972,"innov":16973,"hairy":16974,"resources":16975,"##riel":16976,"##eb":16977,"too":16978,"keith":16979,"bj":16980,"cock":16981,"foss":16982,"ghar":16983,"##acht":16984,"partnership":16985,"chilean":16986,"settle":16987,"raymond":16988,"flagship":16989,"##marine":16990,"kindergarten":16991,"ninet":16992,"lept":16993,"bros":16994,"##boy":16995,"quest":16996,"beyond":16997,"##room":16998,"describes":16999,"##zcz":17000,"somew":17001,"1878":17002,"1850":17003,"princess":17004,"applications":17005,"revolutionary":17006,"##ˈn":17007,"growth":17008,"craig":17009,"lance":17010,"boats":17011,"commonwe":17012,"associate":17013,"electronics":17014,"johann":17015,"##uits":17016,"isa":17017,"acoust":17018,"morning":17019,"##swick":17020,"##stan":17021,"chos":17022,"perman":17023,"interact":17024,"planet":17025,"graham":17026,"note":17027,"##roke":17028,"1862":17029,"lesser":17030,"volcanic":17031,"partners":17032,"commonwealth":17033,"cott":17034,"vas":17035,"##care":17036,"##boro":17037,"kaw":17038,"##enge":17039,"##atsu":17040,"athletic":17041,"5th":17042,"riding":17043,"##oral":17044,"trained":17045,"philippine":17046,"cultivated":17047,"amazon":17048,"hebrew":17049,"89":17050,"bit":17051,"zimb":17052,"##ال":17053,"elm":17054,"curric":17055,"saxophonist":17056,"##vet":17057,"clim":17058,"1865":17059,"denver":17060,"##icus":17061,"kuy":17062,"respectively":17063,"##iac":17064,"plc":17065,"1940s":17066,"joining":17067,"##athi":17068,"wrestling":17069,"drop":17070,"##orf":17071,"funded":17072,"watershed":17073,"##master":17074,"##berland":17075,"##odox":17076,"commune":17077,"wo":17078,"medals":17079,"suburban":17080,"##reh":17081,"beautiful":17082,"##iabad":17083,"comedian":17084,"##sw":17085,"grape":17086,"budd":17087,"dir":17088,"##grad":17089,"hamburg":17090,"path":17091,"price":17092,"##bh":17093,"plus":17094,"else":17095,"index":17096,"simple":17097,"##icts":17098,"soils":17099,"snout":17100,"myth":17101,"editions":17102,"businesses":17103,"archdi":17104,"flowing":17105,"done":17106,"fell":17107,"junction":17108,"voy":17109,"hub":17110,"strug":17111,"1800":17112,"continues":17113,"trial":17114,"masurian":17115,"videos":17116,"surviving":17117,"holdings":17118,"##aug":17119,"bears":17120,"evans":17121,"moroc":17122,"submarines":17123,"##rant":17124,"standing":17125,
[...]
